{
  "version": "1.0",
  "truncation": null,
  "padding": null,
  "added_tokens": [
    {
      "id": 0,
      "content": "<pad>",
      "single_word": false,
      "lstrip": false,
      "rstrip": false,
      "normalized": false,
      "special": true
    }
  ],
  "normalizer": null,
  "pre_tokenizer": {
    "type": "ByteLevel",
    "add_prefix_space": false,
    "trim_offsets": true,
    "use_regex": true
  },
  "post_processor": null,
  "decoder": null,
  "model": {
    "type": "BPE",
    "dropout": null,
    "unk_token": null,
    "continuing_subword_prefix": null,
    "end_of_word_suffix": null,
    "fuse_unk": false,
    "byte_fallback": false,
    "ignore_merges": false,
    "vocab": {
      "<pad>": 0,
      "!": 1,
      "\"": 2,
      "#": 3,
      "$": 4,
      "%": 5,
      "&": 6,
      "'": 7,
      "(": 8,
      ")": 9,
      "*": 10,
      "+": 11,
      ",": 12,
      "-": 13,
      ".": 14,
      "/": 15,
      "0": 16,
      "1": 17,
      "2": 18,
      "3": 19,
      "4": 20,
      "5": 21,
      "6": 22,
      "7": 23,
      "8": 24,
      "9": 25,
      ":": 26,
      ";": 27,
      "<": 28,
      "=": 29,
      ">": 30,
      "?": 31,
      "@": 32,
      "A": 33,
      "B": 34,
      "C": 35,
      "D": 36,
      "E": 37,
      "F": 38,
      "G": 39,
      "H": 40,
      "I": 41,
      "J": 42,
      "K": 43,
      "L": 44,
      "M": 45,
      "N": 46,
      "O": 47,
      "P": 48,
      "Q": 49,
      "R": 50,
      "S": 51,
      "T": 52,
      "U": 53,
      "V": 54,
      "W": 55,
      "X": 56,
      "Y": 57,
      "Z": 58,
      "[": 59,
      "\\": 60,
      "]": 61,
      "^": 62,
      "_": 63,
      "`": 64,
      "a": 65,
      "b": 66,
      "c": 67,
      "d": 68,
      "e": 69,
      "f": 70,
      "g": 71,
      "h": 72,
      "i": 73,
      "j": 74,
      "k": 75,
      "l": 76,
      "m": 77,
      "n": 78,
      "o": 79,
      "p": 80,
      "q": 81,
      "r": 82,
      "s": 83,
      "t": 84,
      "u": 85,
      "v": 86,
      "w": 87,
      "x": 88,
      "y": 89,
      "z": 90,
      "{": 91,
      "|": 92,
      "}": 93,
      "~": 94,
      "¡": 95,
      "¢": 96,
      "£": 97,
      "¤": 98,
      "¥": 99,
      "¦": 100,
      "§": 101,
      "¨": 102,
      "©": 103,
      "ª": 104,
      "«": 105,
      "¬": 106,
      "®": 107,
      "¯": 108,
      "°": 109,
      "±": 110,
      "²": 111,
      "³": 112,
      "´": 113,
      "µ": 114,
      "¶": 115,
      "·": 116,
      "¸": 117,
      "¹": 118,
      "º": 119,
      "»": 120,
      "¼": 121,
      "½": 122,
      "¾": 123,
      "¿": 124,
      "Â": 125,
      "Ã": 126,
      "Ä": 127,
      "Å": 128,
      "Æ": 129,
      "È": 130,
      "É": 131,
      "Ê": 132,
      "Ë": 133,
      "Ì": 134,
      "Í": 135,
      "Î": 136,
      "Ï": 137,
      "Ð": 138,
      "Ñ": 139,
      "Ö": 140,
      "×": 141,
      "Ø": 142,
      "Ù": 143,
      "à": 144,
      "á": 145,
      "â": 146,
      "ã": 147,
      "å": 148,
      "æ": 149,
      "ç": 150,
      "è": 151,
      "é": 152,
      "ï": 153,
      "Ċ": 154,
      "Ġ": 155,
      "Ģ": 156,
      "ģ": 157,
      "Ĥ": 158,
      "ĥ": 159,
      "Ħ": 160,
      "ħ": 161,
      "Ĩ": 162,
      "ĩ": 163,
      "Ī": 164,
      "ī": 165,
      "Ĭ": 166,
      "ĭ": 167,
      "Į": 168,
      "į": 169,
      "İ": 170,
      "ı": 171,
      "Ĳ": 172,
      "ĳ": 173,
      "Ĵ": 174,
      "ĵ": 175,
      "Ķ": 176,
      "ķ": 177,
      "ĸ": 178,
      "Ĺ": 179,
      "ĺ": 180,
      "Ļ": 181,
      "ļ": 182,
      "Ľ": 183,
      "ľ": 184,
      "Ŀ": 185,
      "ŀ": 186,
      "Ł": 187,
      "ł": 188,
      "Ń": 189,
      "Ġt": 190,
      "he": 191,
      "Ġa": 192,
      "in": 193,
      "Ġthe": 194,
      "er": 195,
      "on": 196,
      "Ġ,": 197,
      "re": 198,
      "Ġs": 199,
      "ed": 200,
      "Ġw": 201,
      "Ġo": 202,
      "nd": 203,
      "Ġ.": 204,
      "at": 205,
      "or": 206,
      "en": 207,
      "it": 208,
      "Ġc": 209,
      "Ġf": 210,
      "es": 211,
      "is": 212,
      "Ġb": 213,
      "ar": 214,
      "Ġof": 215,
      "Ġin": 216,
      "an": 217,
      "al": 218,
      "ing": 219,
      "Ġp": 220,
      "Ġand": 221,
      "as": 222,
      "Ġto": 223,
      "Ġm": 224,
      "ic": 225,
      "ro": 226,
      "Ġd": 227,
      "Ġh": 228,
      "ion": 229,
      "le": 230,
      "ou": 231,
      "ĠT": 232,
      "Ġre": 233,
      "Ġ\"": 234,
      "ent": 235,
      "Ġth": 236,
      "il": 237,
      "ĠS": 238,
      "ĠA": 239,
      "Ġ1": 240,
      "st": 241,
      "Ġl": 242,
      "Ġe": 243,
      "Ġn": 244,
      "om": 245,
      "el": 246,
      "Ġ@": 247,
      "am": 248,
      "ĠC": 249,
      "un": 250,
      "ad": 251,
      "Ġwas": 252,
      "ct": 253,
      "ĠM": 254,
      "Ġon": 255,
      "ly": 256,
      "ĠThe": 257,
      "Ġbe": 258,
      "ur": 259,
      "Ġ'": 260,
      "Ġg": 261,
      "ĠB": 262,
      "ĠI": 263,
      "ol": 264,
      "id": 265,
      "im": 266,
      "iv": 267,
      "Ġfor": 268,
      "ir": 269,
      "-@": 270,
      "Ġ@-@": 271,
      "ac": 272,
      "ot": 273,
      "ig": 274,
      "et": 275,
      "Ġas": 276,
      "ut": 277,
      "us": 278,
      "ĠH": 279,
      "ĠĊ": 280,
      "ow": 281,
      "ith": 282,
      "Ġst": 283,
      "ay": 284,
      "ter": 285,
      "Ġhe": 286,
      "ver": 287,
      "Ġthat": 288,
      "Ġ2": 289,
      "Ġwith": 290,
      "ation": 291,
      "ce": 292,
      "ĠP": 293,
      "ch": 294,
      "Ġwh": 295,
      "ĠD": 296,
      "Ġis": 297,
      "ra": 298,
      "Ġby": 299,
      "ĠR": 300,
      "th": 301,
      "ul": 302,
      "em": 303,
      "ĠW": 304,
      "Ġal": 305,
      "Ġcon": 306,
      "ĠF": 307,
      "ers": 308,
      "Ġat": 309,
      "Ġ)": 310,
      "Ġ(": 311,
      "ĠN": 312,
      "Ġan": 313,
      "ĠG": 314,
      "Ġit": 315,
      "os": 316,
      "Ġ19": 317,
      "ĠL": 318,
      "her": 319,
      "rom": 320,
      "est": 321,
      "um": 322,
      "and": 323,
      "ĠJ": 324,
      "Ġhis": 325,
      "00": 326,
      "Ġse": 327,
      "unk": 328,
      "ag": 329,
      "av": 330,
      "ain": 331,
      "Ġ<": 332,
      "Ġde": 333,
      "ri": 334,
      "od": 335,
      "Ġfrom": 336,
      "ĠE": 337,
      "pe": 338,
      "ist": 339,
      "Ġcom": 340,
      "ĠO": 341,
      "Ġpro": 342,
      "Ġv": 343,
      "ld": 344,
      "if": 345,
      "res": 346,
      "ies": 347,
      "ill": 348,
      "Ġsu": 349,
      "ere": 350,
      "Ġr": 351,
      "ew": 352,
      "ĠIn": 353,
      "ort": 354,
      "ore": 355,
      "op": 356,
      "igh": 357,
      "ate": 358,
      "Ġwere": 359,
      "all": 360,
      "ich": 361,
      "art": 362,
      "ard": 363,
      "ong": 364,
      "ber": 365,
      "Ġor": 366,
      "ak": 367,
      "ant": 368,
      "Ġex": 369,
      "Ġch": 370,
      "ud": 371,
      "gh": 372,
      "se": 373,
      "ity": 374,
      "qu": 375,
      "ated": 376,
      "Ġpl": 377,
      "Ġsh": 378,
      "oc": 379,
      "ab": 380,
      "ess": 381,
      "ame": 382,
      "ive": 383,
      "rou": 384,
      "Ġhad": 385,
      "Ġare": 386,
      "pt": 387,
      "pp": 388,
      "ĠU": 389,
      "red": 390,
      "Ġk": 391,
      "Ġwhich": 392,
      "ĠK": 393,
      "ack": 394,
      "ge": 395,
      "Ġâ": 396,
      "Ġle": 397,
      "ip": 398,
      "Ġnot": 399,
      "Ġy": 400,
      "ally": 401,
      "ian": 402,
      "ov": 403,
      "ĠSt": 404,
      "ast": 405,
      "ment": 406,
      "our": 407,
      "ĠâĢ": 408,
      "ear": 409,
      "ell": 410,
      "rit": 411,
      "ost": 412,
      "ia": 413,
      "ight": 414,
      "ord": 415,
      "Ġu": 416,
      "ine": 417,
      "ther": 418,
      "ave": 419,
      "ary": 420,
      "oun": 421,
      "ust": 422,
      "ction": 423,
      "Ġ3": 424,
      "cl": 425,
      "te": 426,
      "irst": 427,
      "Ġun": 428,
      "Ġbut": 429,
      "ous": 430,
      "ap": 431,
      "ish": 432,
      "ould": 433,
      "Ġ200": 434,
      "cc": 435,
      "ĠCh": 436,
      "fter": 437,
      "Ġcomp": 438,
      "ie": 439,
      "Ġwhe": 440,
      "ial": 441,
      "Ġtheir": 442,
      "Ġ;": 443,
      "ru": 444,
      "Ġfirst": 445,
      "so": 446,
      "Ġcont": 447,
      "Ġits": 448,
      "ure": 449,
      "Ġar": 450,
      "ĠV": 451,
      "ok": 452,
      "ide": 453,
      "Ġher": 454,
      "ĠHe": 455,
      "og": 456,
      "per": 457,
      "Ġus": 458,
      "wo": 459,
      "ue": 460,
      "Ġint": 461,
      "ical": 462,
      "ff": 463,
      "hed": 464,
      "ign": 465,
      "ub": 466,
      "Ġcl": 467,
      "ome": 468,
      "out": 469,
      "Ġalso": 470,
      "Ġab": 471,
      "Ġ20": 472,
      "ater": 473,
      "ran": 474,
      "ition": 475,
      "ass": 476,
      "Ġad": 477,
      "ire": 478,
      "ork": 479,
      "mer": 480,
      "own": 481,
      "Ġhave": 482,
      "Ġone": 483,
      "Ġ18": 484,
      "ry": 485,
      "ime": 486,
      "ond": 487,
      "Ġrec": 488,
      "Ġ4": 489,
      "Ġ:": 490,
      ".@": 491,
      "Ġ@.@": 492,
      "du": 493,
      "Ġres": 494,
      "age": 495,
      "Ġwho": 496,
      "low": 497,
      "Ġro": 498,
      "ĠâĢĵ": 499,
      "ree": 500,
      "pl": 501,
      "ĠTh": 502,
      "orm": 503,
      "ect": 504,
      "Ġ5": 505,
      "Ġper": 506,
      "Ġbeen": 507,
      "Ġhas": 508,
      "Ġsc": 509,
      "Ġtwo": 510,
      "ence": 511,
      "ough": 512,
      "Ġbec": 513,
      "uring": 514,
      "ile": 515,
      "ult": 516,
      "Ġdis": 517,
      "Ġthis": 518,
      "iz": 519,
      "Ġyear": 520,
      "act": 521,
      "Ġpart": 522,
      "Ġte": 523,
      "Ġthey": 524,
      "Ġag": 525,
      "ely": 526,
      "ations": 527,
      "ory": 528,
      "Ġdes": 529,
      "Ġj": 530,
      "ĠIt": 531,
      "ĠAl": 532,
      "Ġover": 533,
      ",@": 534,
      "Ġ@,@": 535,
      "Ġser": 536,
      "Ġman": 537,
      "ke": 538,
      "land": 539,
      "Ġplay": 540,
      "ric": 541,
      "Ġother": 542,
      "Ġen": 543,
      "clud": 544,
      "ade": 545,
      "Ġafter": 546,
      "Ġsp": 547,
      "are": 548,
      "ound": 549,
      "ount": 550,
      "Ġoff": 551,
      "Ġout": 552,
      "ach": 553,
      "ib": 554,
      "Ġim": 555,
      "ice": 556,
      "urn": 557,
      "over": 558,
      "wn": 559,
      "Ġ201": 560,
      "ace": 561,
      "Ġne": 562,
      "ark": 563,
      "sion": 564,
      "ĠY": 565,
      "ite": 566,
      "ance": 567,
      "Ġup": 568,
      "Ġinclud": 569,
      "man": 570,
      "Ġpre": 571,
      "Ġtime": 572,
      "Ġwould": 573,
      "ced": 574,
      "rough": 575,
      "Ġinto": 576,
      "Ġshe": 577,
      "Ġspe": 578,
      "we": 579,
      "ĠOn": 580,
      "ĠUn": 581,
      "Ġhim": 582,
      "ph": 583,
      "nder": 584,
      "Ġev": 585,
      "ward": 586,
      "ings": 587,
      "ind": 588,
      "ors": 589,
      "ted": 590,
      "vel": 591,
      "Ġ6": 592,
      "Ġmore": 593,
      "Ġatt": 594,
      "oin": 595,
      "Ġwe": 596,
      "ild": 597,
      "one": 598,
      "port": 599,
      "ates": 600,
      "Ġall": 601,
      "ited": 602,
      "ased": 603,
      "Ġcomm": 604,
      "ied": 605,
      "les": 606,
      "ren": 607,
      "ang": 608,
      "ose": 609,
      "ces": 610,
      "amp": 611,
      "round": 612,
      "Ġinter": 613,
      "ts": 614,
      "ase": 615,
      "rib": 616,
      "ens": 617,
      "ents": 618,
      "ood": 619,
      "ĠSe": 620,
      "able": 621,
      "Ġ7": 622,
      "ason": 623,
      "ress": 624,
      "oy": 625,
      "Ġwhen": 626,
      "ve": 627,
      "ions": 628,
      "Ġfe": 629,
      "old": 630,
      "Ġwork": 631,
      "fer": 632,
      "Ġbet": 633,
      "ĠRe": 634,
      "ail": 635,
      "Ġnew": 636,
      "ious": 637,
      "att": 638,
      "ered": 639,
      "Ġthem": 640,
      "Ġcent": 641,
      "ubl": 642,
      "Ġ8": 643,
      "ilm": 644,
      "reat": 645,
      "gan": 646,
      "aus": 647,
      "ember": 648,
      "ick": 649,
      "als": 650,
      "Ġrem": 651,
      "Ġonly": 652,
      "Ġsec": 653,
      "Ġ9": 654,
      "ix": 655,
      "ved": 656,
      "ake": 657,
      "ft": 658,
      "Ġgame": 659,
      "ĠAs": 660,
      "Ġmost": 661,
      "aw": 662,
      "Ġkn": 663,
      "Ġear": 664,
      "Ġduring": 665,
      "Ġcan": 666,
      "Ġme": 667,
      "form": 668,
      "ĠAn": 669,
      "ween": 670,
      "Ġcons": 671,
      "oth": 672,
      "cted": 673,
      "Ġthan": 674,
      "ĠMar": 675,
      "ollow": 676,
      "orth": 677,
      "ath": 678,
      "ons": 679,
      "way": 680,
      "Ġsong": 681,
      "Ġabout": 682,
      "Ġfin": 683,
      "Ġthree": 684,
      "hip": 685,
      "Ġtr": 686,
      "ĠNew": 687,
      "Ġbetween": 688,
      "ĠDe": 689,
      "Ġprodu": 690,
      "Ġlater": 691,
      "Ġagain": 692,
      "orn": 693,
      "ict": 694,
      "Ġfilm": 695,
      "Ġchar": 696,
      "ug": 697,
      "fore": 698,
      "ational": 699,
      "iew": 700,
      "Ġthrough": 701,
      "tern": 702,
      "Ġfl": 703,
      "Ġrel": 704,
      "ĠAr": 705,
      "ook": 706,
      "Ġret": 707,
      "Ġbu": 708,
      "outh": 709,
      "Ġ00": 710,
      "Ġunder": 711,
      "Ġcol": 712,
      "Ġ199": 713,
      "ron": 714,
      "Ġqu": 715,
      "Ġnum": 716,
      "Ġpos": 717,
      "Ġra": 718,
      "ob": 719,
      "ans": 720,
      "Ġver": 721,
      "ck": 722,
      "Ġend": 723,
      "ular": 724,
      "Ġseason": 725,
      "Ġso": 726,
      "Ġap": 727,
      "Ġwrit": 728,
      "Ġgen": 729,
      "orld": 730,
      "Ġwhile": 731,
      "Ġrecord": 732,
      "Ġass": 733,
      "ision": 734,
      "Ġrele": 735,
      "Ġmade": 736,
      "ey": 737,
      "Ġpe": 738,
      "Ġwhere": 739,
      "ĠEn": 740,
      "ock": 741,
      "ĠAmer": 742,
      "Ġsuch": 743,
      "Ġspec": 744,
      "ished": 745,
      "ĠAmeric": 746,
      "Ġapp": 747,
      "Ġac": 748,
      "Ġinc": 749,
      "oh": 750,
      "Ġsub": 751,
      "Ġform": 752,
      "Ġreg": 753,
      "ever": 754,
      "ating": 755,
      "ived": 756,
      "ral": 757,
      "ĠCom": 758,
      "Ġact": 759,
      "hes": 760,
      "Ġep": 761,
      "Ġlar": 762,
      "Ġacc": 763,
      "Ġsome": 764,
      "Ġfollow": 765,
      "Ġ/": 766,
      "ton": 767,
      "Ġday": 768,
      "ames": 769,
      "Ġcall": 770,
      "Ġmov": 771,
      "Ġam": 772,
      "hen": 773,
      "ool": 774,
      "Ġfour": 775,
      "Ġ000": 776,
      "Ġused": 777,
      "aid": 778,
      "Ġele": 779,
      "ros": 780,
      "ific": 781,
      "Ġdef": 782,
      "ike": 783,
      "Ġmus": 784,
      "ars": 785,
      "bum": 786,
      "Ġthere": 787,
      "Ġpubl": 788,
      "Ġbefore": 789,
      "Ġtra": 790,
      "ĠLe": 791,
      "ĠThis": 792,
      "Ġsecond": 793,
      "ĠAt": 794,
      "Ġno": 795,
      "Ġyears": 796,
      "ury": 797,
      "Ġind": 798,
      "ics": 799,
      "ll": 800,
      "ank": 801,
      "ten": 802,
      "ual": 803,
      "son": 804,
      "Ġappe": 805,
      "io": 806,
      "Ġdo": 807,
      "ode": 808,
      "ily": 809,
      "owever": 810,
      "ident": 811,
      "end": 812,
      "Ġepis": 813,
      "iel": 814,
      "Ġent": 815,
      "Ġhigh": 816,
      "Ġsy": 817,
      "Ġbl": 818,
      "Ġpres": 819,
      "Ġsupp": 820,
      "Ġbeing": 821,
      "ning": 822,
      "ines": 823,
      "Ġthen": 824,
      "Ġ10": 825,
      "Ġalbum": 826,
      "Ġset": 827,
      "Ġsur": 828,
      "rans": 829,
      "Ġdec": 830,
      "ather": 831,
      "Ġfound": 832,
      "ris": 833,
      "Ġmet": 834,
      "other": 835,
      "Ġloc": 836,
      "Ġseries": 837,
      "Ġ0": 838,
      "ause": 839,
      "Ġbecame": 840,
      "Ġsever": 841,
      "ale": 842,
      "ained": 843,
      "iver": 844,
      "enn": 845,
      "olog": 846,
      "Ġnumber": 847,
      "ram": 848,
      "aj": 849,
      "Ġwell": 850,
      "ject": 851,
      "ek": 852,
      "ĠShe": 853,
      "velop": 854,
      "Ġshow": 855,
      "Ġ17": 856,
      "Ġboth": 857,
      "igin": 858,
      "ities": 859,
      "ivers": 860,
      "Ġcharact": 861,
      "Ġadd": 862,
      "ĠBrit": 863,
      "ep": 864,
      "air": 865,
      "ince": 866,
      "Ġinv": 867,
      "any": 868,
      "Ġ12": 869,
      "Ġrece": 870,
      "Ġteam": 871,
      "ife": 872,
      "ĠAfter": 873,
      "Ġlong": 874,
      "ane": 875,
      "Ġco": 876,
      "Ġsing": 877,
      "Ġagainst": 878,
      "ired": 879,
      "Ġincluding": 880,
      "iss": 881,
      "ĠJoh": 882,
      "ised": 883,
      "ĠSh": 884,
      "ĠEng": 885,
      "ĠUnited": 886,
      "ird": 887,
      "ement": 888,
      "Ġ194": 889,
      "Ġback": 890,
      "Ġsm": 891,
      "Ġ198": 892,
      "ann": 893,
      "ier": 894,
      "led": 895,
      "ĠâĢĶ": 896,
      "Ġmain": 897,
      "Ġdire": 898,
      "Ġpr": 899,
      "ik": 900,
      "Ġknown": 901,
      "ful": 902,
      "Ġmany": 903,
      "ower": 904,
      "ative": 905,
      "Ġstud": 906,
      "Ġmon": 907,
      "Ġop": 908,
      "Ġcre": 909,
      "Ġdid": 910,
      "row": 911,
      "Ġtrans": 912,
      "rop": 913,
      "ĠJohn": 914,
      "its": 915,
      "ters": 916,
      "Ġem": 917,
      "ĠWh": 918,
      "ober": 919,
      "elf": 920,
      "Ġdevelop": 921,
      "ually": 922,
      "erm": 923,
      "Ġcould": 924,
      "ures": 925,
      "ĠSc": 926,
      "Ġob": 927,
      "ting": 928,
      "Ġ16": 929,
      "ins": 930,
      "eral": 931,
      "ven": 932,
      "Ġepisode": 933,
      "Ġ15": 934,
      "ared": 935,
      "ise": 936,
      "ield": 937,
      "au": 938,
      "Ġexp": 939,
      "Ġdif": 940,
      "Ġdesc": 941,
      "Ġship": 942,
      "Ġorigin": 943,
      "Ġmin": 944,
      "Ġpop": 945,
      "Ġgo": 946,
      "til": 947,
      "Ġmill": 948,
      "ross": 949,
      "Ġimp": 950,
      "Ġlead": 951,
      "tend": 952,
      "though": 953,
      "Ġseveral": 954,
      "Ġbro": 955,
      "Ġcalled": 956,
      "Ġrep": 957,
      "Ġperform": 958,
      "az": 959,
      "Ġest": 960,
      "oot": 961,
      "Ġsaid": 962,
      "uch": 963,
      "ized": 964,
      "overn": 965,
      "ĠInd": 966,
      "emb": 967,
      "Ġcomple": 968,
      "ern": 969,
      "Ġcontin": 970,
      "iet": 971,
      "view": 972,
      "Ġpol": 973,
      "ley": 974,
      "der": 975,
      "ĠCar": 976,
      "Ġcar": 977,
      "Ġbegan": 978,
      "Ġmay": 979,
      "Ġ196": 980,
      "iam": 981,
      "roup": 982,
      "Ġpo": 983,
      "ĠAmerican": 984,
      "Ġsign": 985,
      "Ġany": 986,
      "Ġdist": 987,
      "Ġ11": 988,
      "Ġbel": 989,
      "une": 990,
      "Ġrun": 991,
      "ute": 992,
      "my": 993,
      "Ġnear": 994,
      "Ġearly": 995,
      "ert": 996,
      "Ġinst": 997,
      "Ġreturn": 998,
      "imes": 999,
      "Ġ197": 1000,
      "ued": 1001,
      "Ġdesign": 1002,
      "aking": 1003,
      "ĠSp": 1004,
      "Ġair": 1005,
      "ople": 1006,
      "apt": 1007,
      "Ġuse": 1008,
      "Ġeff": 1009,
      "Ġdown": 1010,
      "Ġdisc": 1011,
      "Ġthese": 1012,
      "ccess": 1013,
      "Ġuntil": 1014,
      "Ġcrit": 1015,
      "ash": 1016,
      "chool": 1017,
      "ided": 1018,
      "ments": 1019,
      "Ġinf": 1020,
      "Ġcentury": 1021,
      "Ġwar": 1022,
      "ĠZ": 1023,
      "Ġown": 1024,
      "Ġmat": 1025,
      "Ġdescrib": 1026,
      "ĠAust": 1027,
      "ĠCon": 1028,
      "ty": 1029,
      "und": 1030,
      "Ġalong": 1031,
      "Ġart": 1032,
      "Ġsim": 1033,
      "ĠMay": 1034,
      "Ġfeat": 1035,
      "ah": 1036,
      "up": 1037,
      "ĠBe": 1038,
      "ism": 1039,
      "cept": 1040,
      "gest": 1041,
      "Ġfam": 1042,
      "Ġthough": 1043,
      "ially": 1044,
      "ves": 1045,
      "ull": 1046,
      "Ġsame": 1047,
      "ouse": 1048,
      "Ġph": 1049,
      "Ġocc": 1050,
      "Ġreleased": 1051,
      "Ġmusic": 1052,
      "ĠWar": 1053,
      "Ġprov": 1054,
      "ys": 1055,
      "ured": 1056,
      "ĠIs": 1057,
      "Ġstart": 1058,
      "osed": 1059,
      "ĠBritish": 1060,
      "Ġhist": 1061,
      "rist": 1062,
      "Ġ195": 1063,
      "Ġland": 1064,
      "ium": 1065,
      "Ġopen": 1066,
      "Ġmil": 1067,
      "Ġconst": 1068,
      "xt": 1069,
      "Ġdep": 1070,
      "ajor": 1071,
      "ĠThey": 1072,
      "ove": 1073,
      "Ġcity": 1074,
      "ists": 1075,
      "ible": 1076,
      "Ġprev": 1077,
      "ĠCl": 1078,
      "Ġoffic": 1079,
      "Ġlike": 1080,
      "amed": 1081,
      "Ġpass": 1082,
      "Ġbecause": 1083,
      "Ġgroup": 1084,
      "Ġmillion": 1085,
      "ĠBl": 1086,
      "ution": 1087,
      "Ġsuccess": 1088,
      "ets": 1089,
      "Ġins": 1090,
      "Ġbuild": 1091,
      "Ġsmall": 1092,
      "erman": 1093,
      "Ġpeople": 1094,
      "Ġ13": 1095,
      "Ġmod": 1096,
      "ĠAp": 1097,
      "Ġpoin": 1098,
      "Ġeach": 1099,
      "oss": 1100,
      "Ġcount": 1101,
      "Ġgr": 1102,
      "erson": 1103,
      "ange": 1104,
      "urch": 1105,
      "ission": 1106,
      "ĠWorld": 1107,
      "Ġwin": 1108,
      "Ġoper": 1109,
      "ined": 1110,
      "Ġbr": 1111,
      "ĠTe": 1112,
      "ger": 1113,
      "ĠCol": 1114,
      "Ġkm": 1115,
      "Ġcharacter": 1116,
      "ĠUS": 1117,
      "stem": 1118,
      "ĠFor": 1119,
      "Ġ193": 1120,
      "ĠAug": 1121,
      "Ġever": 1122,
      "Ġaround": 1123,
      "Ġarea": 1124,
      "els": 1125,
      "Ġgovern": 1126,
      "ĠAugust": 1127,
      "ink": 1128,
      "Ã©": 1129,
      "Ġ%": 1130,
      "ĠAd": 1131,
      "ctions": 1132,
      "Ġconsid": 1133,
      "Ġ$": 1134,
      "Ġsix": 1135,
      "anc": 1136,
      "ains": 1137,
      "uc": 1138,
      "ĠSept": 1139,
      "ĠStates": 1140,
      "ales": 1141,
      "uth": 1142,
      "ĠBr": 1143,
      "Ġsupport": 1144,
      "ĠHowever": 1145,
      "ged": 1146,
      "Ġgu": 1147,
      "aced": 1148,
      "Ġ191": 1149,
      "Ġed": 1150,
      "Ġtook": 1151,
      "Ġ14": 1152,
      "Ġfollowing": 1153,
      "ĠSeptember": 1154,
      "ina": 1155,
      "ues": 1156,
      "Ġbatt": 1157,
      "ble": 1158,
      "ĠAll": 1159,
      "ĠFran": 1160,
      "Ġresult": 1161,
      "cess": 1162,
      "Ġclass": 1163,
      "Ġpartic": 1164,
      "Ġattack": 1165,
      "ient": 1166,
      "Ġhead": 1167,
      "Ġfive": 1168,
      "ĠJu": 1169,
      "Ġvar": 1170,
      "erv": 1171,
      "Ġnorth": 1172,
      "ĠGerman": 1173,
      "ĠMc": 1174,
      "Ġstate": 1175,
      "Ġlarge": 1176,
      "Ġwill": 1177,
      "Ġreceived": 1178,
      "aving": 1179,
      "Ġprom": 1180,
      "ax": 1181,
      "Ġadv": 1182,
      "ording": 1183,
      "rote": 1184,
      "itt": 1185,
      "ĠAustral": 1186,
      "pect": 1187,
      "Ġpublic": 1188,
      "iving": 1189,
      "Ġann": 1190,
      "ĠPl": 1191,
      "Ġreport": 1192,
      "ants": 1193,
      "wards": 1194,
      "ball": 1195,
      "gin": 1196,
      "med": 1197,
      "Ġmajor": 1198,
      "ĠOct": 1199,
      "ilt": 1200,
      "ored": 1201,
      "ĠJune": 1202,
      "ĠNov": 1203,
      "ĠJan": 1204,
      "ner": 1205,
      "Ġold": 1206,
      "ives": 1207,
      "ats": 1208,
      "ract": 1209,
      "ĠOctober": 1210,
      "eb": 1211,
      "Ġweek": 1212,
      "ural": 1213,
      "Ġcamp": 1214,
      "Ġcontro": 1215,
      "ately": 1216,
      "Ġsince": 1217,
      "ĠQ": 1218,
      "ility": 1219,
      "Ġconf": 1220,
      "Ġhel": 1221,
      "ĠChrist": 1222,
      "ril": 1223,
      "ox": 1224,
      "Ġmar": 1225,
      "ĠComm": 1226,
      "oman": 1227,
      "Ġrest": 1228,
      "ĠNorth": 1229,
      "ague": 1230,
      "Ġbook": 1231,
      "Ġlast": 1232,
      "ĠDuring": 1233,
      "Ġdiffer": 1234,
      "Ġincre": 1235,
      "Ġmed": 1236,
      "uary": 1237,
      "ĠCan": 1238,
      "yl": 1239,
      "ne": 1240,
      "Ġdet": 1241,
      "Ġstr": 1242,
      "ĠMe": 1243,
      "Ġref": 1244,
      "ĠApril": 1245,
      "Ġ]": 1246,
      "Ġ[": 1247,
      "Ġappear": 1248,
      "ĠYork": 1249,
      "Ġsystem": 1250,
      "omet": 1251,
      "Ġif": 1252,
      "Ġworld": 1253,
      "Ġconc": 1254,
      "Ġleft": 1255,
      "Ġjust": 1256,
      "get": 1257,
      "lish": 1258,
      "raft": 1259,
      "Ġdirect": 1260,
      "Ġline": 1261,
      "Ġallow": 1262,
      "ĠPh": 1263,
      "aim": 1264,
      "Ġwhat": 1265,
      "Ġplayed": 1266,
      "Ġwrote": 1267,
      "ians": 1268,
      "iversity": 1269,
      "empt": 1270,
      "Ġtit": 1271,
      "ively": 1272,
      "Ġsingle": 1273,
      "ĠSouth": 1274,
      "raph": 1275,
      "Ġshort": 1276,
      "..": 1277,
      "oard": 1278,
      "Ġdue": 1279,
      "Ġlife": 1280,
      "Ġsl": 1281,
      "Ġext": 1282,
      "Ġtri": 1283,
      "ĠJuly": 1284,
      "ides": 1285,
      "Ġdescribed": 1286,
      "Ġschool": 1287,
      "Ġmuch": 1288,
      "ified": 1289,
      "Ġ25": 1290,
      "ĠWhen": 1291,
      "Ġname": 1292,
      "Ġvis": 1293,
      "Ġ30": 1294,
      "Ġfinal": 1295,
      "Ġposs": 1296,
      "ĠNovember": 1297,
      "ont": 1298,
      "ically": 1299,
      "Ġspecies": 1300,
      "mber": 1301,
      "Ġsouth": 1302,
      "ention": 1303,
      "ĠBy": 1304,
      "orp": 1305,
      "Ġwon": 1306,
      "ĠMarch": 1307,
      "Ġchild": 1308,
      "Ġhome": 1309,
      "Ġbased": 1310,
      "Ġdeath": 1311,
      "Ġserv": 1312,
      "ently": 1313,
      "Ġanother": 1314,
      "Ġexpl": 1315,
      "hel": 1316,
      "ĠEu": 1317,
      "Ġ...": 1318,
      "ene": 1319,
      "Ġstru": 1320,
      "Ġmonth": 1321,
      "ĠJanuary": 1322,
      "Ġprog": 1323,
      "ĠDece": 1324,
      "rand": 1325,
      "ret": 1326,
      "ilar": 1327,
      "Ġappro": 1328,
      "Ġty": 1329,
      "Ġdam": 1330,
      "ĠII": 1331,
      "ivision": 1332,
      "ody": 1333,
      "ole": 1334,
      "Ġcare": 1335,
      "ple": 1336,
      "Ġport": 1337,
      "Ġnow": 1338,
      "Ġgun": 1339,
      "ĠDecember": 1340,
      "ched": 1341,
      "Ġreview": 1342,
      "Ġplace": 1343,
      "ony": 1344,
      "Ġstory": 1345,
      "Ġeven": 1346,
      "Ġfamily": 1347,
      "Ġgener": 1348,
      "Ġbre": 1349,
      "ling": 1350,
      "ience": 1351,
      "Ġbelie": 1352,
      "ital": 1353,
      "omin": 1354,
      "Ġnamed": 1355,
      "ness": 1356,
      "hest": 1357,
      "ĠHis": 1358,
      "Ġpower": 1359,
      "avy": 1360,
      "ages": 1361,
      "rew": 1362,
      "ĠGe": 1363,
      "Ġvery": 1364,
      "Ġeffect": 1365,
      "Ġevent": 1366,
      "Ġhand": 1367,
      "idge": 1368,
      "Ġway": 1369,
      "Ġpar": 1370,
      "Ġattempt": 1371,
      "ĠGu": 1372,
      "Ġkill": 1373,
      "Ġincluded": 1374,
      "ĠKing": 1375,
      "Ġrequ": 1376,
      "ham": 1377,
      "Ġlate": 1378,
      "Ġgovernment": 1379,
      "Ġwithin": 1380,
      "Ġterm": 1381,
      "ature": 1382,
      "Ġcolle": 1383,
      "Ġtop": 1384,
      "ĠHer": 1385,
      "Ġthose": 1386,
      "Ġorgan": 1387,
      "Ġdr": 1388,
      "Ġversion": 1389,
      "Ġmake": 1390,
      "iod": 1391,
      "Ġthird": 1392,
      "Ġtrack": 1393,
      "alf": 1394,
      "ĠThere": 1395,
      "by": 1396,
      "ĠPro": 1397,
      "Ġleg": 1398,
      "Ġhum": 1399,
      "ideo": 1400,
      "ĠPar": 1401,
      "ĠEuro": 1402,
      "Ġbest": 1403,
      "ĠPr": 1404,
      "ulation": 1405,
      "Ġmark": 1406,
      "Ġbuilt": 1407,
      "Ġestab": 1408,
      "Ġ192": 1409,
      "ĠÂ": 1410,
      "pend": 1411,
      "ĠBro": 1412,
      "Ġled": 1413,
      "ached": 1414,
      "Ġturn": 1415,
      "eng": 1416,
      "Ġview": 1417,
      "itions": 1418,
      "Ġreal": 1419,
      "Ġ100": 1420,
      "Ġprevious": 1421,
      "Ġperson": 1422,
      "ĠHar": 1423,
      "riend": 1424,
      "Ġconstru": 1425,
      "Ġmen": 1426,
      "Ġresp": 1427,
      "Ġfur": 1428,
      "Ġstill": 1429,
      "Ġiss": 1430,
      "ional": 1431,
      "lev": 1432,
      "Ġoriginal": 1433,
      "Ġdra": 1434,
      "Ġdem": 1435,
      "Ġprop": 1436,
      "inc": 1437,
      "Ġgames": 1438,
      "Ġsk": 1439,
      "Ġexper": 1440,
      "ĠAnd": 1441,
      "iven": 1442,
      "ences": 1443,
      "ĠFl": 1444,
      "ms": 1445,
      "Ġband": 1446,
      "Ġgreat": 1447,
      "akes": 1448,
      "Ġeng": 1449,
      "Ġoften": 1450,
      "Ġhelp": 1451,
      "Ġrole": 1452,
      "ĠMin": 1453,
      "apan": 1454,
      "oci": 1455,
      "ĠEurope": 1456,
      "ances": 1457,
      "alk": 1458,
      "Ġperiod": 1459,
      "ĠNational": 1460,
      "ented": 1461,
      "Ġlist": 1462,
      "ĠWill": 1463,
      "Ġalthough": 1464,
      "ĠJapan": 1465,
      "Ġright": 1466,
      "ense": 1467,
      "Ġrepl": 1468,
      "mp": 1469,
      "Ġopp": 1470,
      "ories": 1471,
      "ology": 1472,
      "Ġsimilar": 1473,
      "Ġnext": 1474,
      "Ġmemb": 1475,
      "reen": 1476,
      "Ġmag": 1477,
      "ĠEd": 1478,
      "read": 1479,
      "Ġsold": 1480,
      "atic": 1481,
      "Ġformer": 1482,
      "ls": 1483,
      "ĠWe": 1484,
      "Ġdest": 1485,
      "Ġplayer": 1486,
      "self": 1487,
      "itary": 1488,
      "ival": 1489,
      "que": 1490,
      "Ġsug": 1491,
      "Ġaddition": 1492,
      "ead": 1493,
      "Ġwater": 1494,
      "ĠCity": 1495,
      "Ġ2010": 1496,
      "aining": 1497,
      "ott": 1498,
      "Ġtown": 1499,
      "Ġcame": 1500,
      "ler": 1501,
      "let": 1502,
      "Ġdeb": 1503,
      "Ġcommand": 1504,
      "eter": 1505,
      "Ġes": 1506,
      "rench": 1507,
      "Ġauth": 1508,
      "Ġcaus": 1509,
      "Ġfew": 1510,
      "ĠWest": 1511,
      "Ġcapt": 1512,
      "Ġprote": 1513,
      "aken": 1514,
      "oad": 1515,
      "ior": 1516,
      "app": 1517,
      "Ġcour": 1518,
      "ĠMich": 1519,
      "ring": 1520,
      "Ġinit": 1521,
      "Ġstar": 1522,
      "elt": 1523,
      "Ġconsidered": 1524,
      "Ġmid": 1525,
      "Ġlocal": 1526,
      "ried": 1527,
      "side": 1528,
      "Ġdifferent": 1529,
      "reet": 1530,
      "ung": 1531,
      "Ġmoved": 1532,
      "Ġmy": 1533,
      "uted": 1534,
      "ai": 1535,
      "tended": 1536,
      "Ġcur": 1537,
      "gy": 1538,
      "Ġhowever": 1539,
      "bs": 1540,
      "Ġsent": 1541,
      "Ġcommon": 1542,
      "Ġheld": 1543,
      "Ġ2009": 1544,
      "dom": 1545,
      "Ġcap": 1546,
      "Ġmanag": 1547,
      "Ġ21": 1548,
      "ĠRiver": 1549,
      "Ġyou": 1550,
      "ister": 1551,
      "Ġvideo": 1552,
      "Ġclaim": 1553,
      "Ġamong": 1554,
      "arn": 1555,
      "ĠMan": 1556,
      "ches": 1557,
      "Ġtw": 1558,
      "ĠMus": 1559,
      "Ġstand": 1560,
      "Ġevery": 1561,
      "Ġcover": 1562,
      "Ġstorm": 1563,
      "lu": 1564,
      "Ġdays": 1565,
      "ĠFrench": 1566,
      "Ġsay": 1567,
      "sh": 1568,
      "ĠEngland": 1569,
      "Ġwithout": 1570,
      "ĠOne": 1571,
      "ĠCanad": 1572,
      "estern": 1573,
      "Ġcontinued": 1574,
      "Ġsuggest": 1575,
      "Ġ&": 1576,
      "ript": 1577,
      "enc": 1578,
      "arch": 1579,
      "Ġjoin": 1580,
      "hem": 1581,
      "Ġtrad": 1582,
      "Ġ2008": 1583,
      "ae": 1584,
      "ĠCount": 1585,
      "ĠGen": 1586,
      "ebru": 1587,
      "par": 1588,
      "Ġant": 1589,
      "aster": 1590,
      "Ġimport": 1591,
      "ropical": 1592,
      "augh": 1593,
      "Ġside": 1594,
      "ĠBatt": 1595,
      "pite": 1596,
      "urs": 1597,
      "Ġfre": 1598,
      "Ġbecome": 1599,
      "Ġtake": 1600,
      "ĠFebru": 1601,
      "ĠFebruary": 1602,
      "Ġbeh": 1603,
      "Ġhalf": 1604,
      "ittle": 1605,
      "Ġmembers": 1606,
      "ĠWith": 1607,
      "Ġfield": 1608,
      "ering": 1609,
      "Ġwritten": 1610,
      "be": 1611,
      "ator": 1612,
      "ize": 1613,
      "ĠUniversity": 1614,
      "Ġav": 1615,
      "Ġfind": 1616,
      "Ġpolit": 1617,
      "Ġbas": 1618,
      "Ġtot": 1619,
      "Ġpublished": 1620,
      "rodu": 1621,
      "Ġorder": 1622,
      "uss": 1623,
      "ĠOr": 1624,
      "ards": 1625,
      "Ġ2007": 1626,
      "Ġgave": 1627,
      "atter": 1628,
      "ĠAlthough": 1629,
      "Ġrelease": 1630,
      "Ġfar": 1631,
      "ĠState": 1632,
      "rison": 1633,
      "Ġparticular": 1634,
      "Ġfoot": 1635,
      "ese": 1636,
      "Ġvict": 1637,
      "Ġcr": 1638,
      "ĠAcc": 1639,
      "Ġprof": 1640,
      "Ġdel": 1641,
      "ops": 1642,
      "ĠPark": 1643,
      "Ġfurther": 1644,
      "Ġrecorded": 1645,
      "craft": 1646,
      "ices": 1647,
      "ĠAm": 1648,
      "Ġplan": 1649,
      "br": 1650,
      "Ġlevel": 1651,
      "Ġyoun": 1652,
      "ĠEnglish": 1653,
      "Ġinvol": 1654,
      "Ġpost": 1655,
      "Ġhaving": 1656,
      "Ġrepres": 1657,
      "Ġequ": 1658,
      "Ġ23": 1659,
      "ĠGeor": 1660,
      "levision": 1661,
      "Ġnov": 1662,
      "Ġreturned": 1663,
      "ots": 1664,
      "Ġ24": 1665,
      "Ġfore": 1666,
      "Ġstrong": 1667,
      "ograph": 1668,
      "Ġnever": 1669,
      "Ġcompany": 1670,
      "Ġfather": 1671,
      "Ġpoint": 1672,
      "Ġtem": 1673,
      "ĠNe": 1674,
      "Ġships": 1675,
      "ery": 1676,
      "atch": 1677,
      "roy": 1678,
      "Ġless": 1679,
      "Ġclub": 1680,
      "Ġhistory": 1681,
      "ĠDes": 1682,
      "Ġchang": 1683,
      "ĠChar": 1684,
      "Ġcompet": 1685,
      "Ġdefe": 1686,
      "ours": 1687,
      "ĠNo": 1688,
      "Ġarr": 1689,
      "Ġroad": 1690,
      "Ġwind": 1691,
      "lear": 1692,
      "yle": 1693,
      "Ġprogram": 1694,
      "Ġcareer": 1695,
      "oon": 1696,
      "iety": 1697,
      "pped": 1698,
      "Ġfriend": 1699,
      "Ġeight": 1700,
      "ĠWhile": 1701,
      "ĠAccording": 1702,
      "Ġ22": 1703,
      "Ġ190": 1704,
      "Ġlow": 1705,
      "iter": 1706,
      "astern": 1707,
      "Ġfun": 1708,
      "rent": 1709,
      "Ġread": 1710,
      "Ġrefer": 1711,
      "ĠAss": 1712,
      "Ġobs": 1713,
      "Ġhow": 1714,
      "ĠCal": 1715,
      "Ġten": 1716,
      "ĠWilliam": 1717,
      "Ġposition": 1718,
      "line": 1719,
      "ĠDav": 1720,
      "anted": 1721,
      "ones": 1722,
      "Ġinclude": 1723,
      "Ġbuilding": 1724,
      "Ġsound": 1725,
      "ĠBar": 1726,
      "Ġproduction": 1727,
      "Ġsomet": 1728,
      "ĠAb": 1729,
      "Ġtotal": 1730,
      "Ġsit": 1731,
      "chn": 1732,
      "ĠDivision": 1733,
      "ĠEl": 1734,
      "itive": 1735,
      "Ġauthor": 1736,
      "ably": 1737,
      "Ġproduced": 1738,
      "Ġsongs": 1739,
      "Ġinflu": 1740,
      "ampions": 1741,
      "Ġter": 1742,
      "Ġwest": 1743,
      "Ġlight": 1744,
      "Ġnort": 1745,
      "ront": 1746,
      "Ġdecl": 1747,
      "Ġstated": 1748,
      "Ġproject": 1749,
      "ctor": 1750,
      "Ġ2006": 1751,
      "ailed": 1752,
      "Ġgiven": 1753,
      "Ġreported": 1754,
      "omen": 1755,
      "Ġtitle": 1756,
      "ney": 1757,
      "Ġ26": 1758,
      "Ġarch": 1759,
      "Ġred": 1760,
      "Ġeast": 1761,
      "Ġ2011": 1762,
      "aur": 1763,
      "hing": 1764,
      "rem": 1765,
      "Ġshould": 1766,
      "ining": 1767,
      "Ġlim": 1768,
      "aren": 1769,
      "Ġlaw": 1770,
      "Ġcommun": 1771,
      "Ġmilitary": 1772,
      "ĠCent": 1773,
      "ief": 1774,
      "Ġ50": 1775,
      "ensive": 1776,
      "Ġaff": 1777,
      "Ġchildren": 1778,
      "ĠAir": 1779,
      "Ġlost": 1780,
      "na": 1781,
      "Ġgood": 1782,
      "osp": 1783,
      "ression": 1784,
      "Ġcritic": 1785,
      "Ġtimes": 1786,
      "ec": 1787,
      "Ġord": 1788,
      "sequ": 1789,
      "Ġhistor": 1790,
      "ĠX": 1791,
      "Ġhouse": 1792,
      "used": 1793,
      "Ġcomb": 1794,
      "Ġusing": 1795,
      "Ġmaking": 1796,
      "isc": 1797,
      "ĠAf": 1798,
      "Ġsol": 1799,
      "ges": 1800,
      "Ġla": 1801,
      "ĠJack": 1802,
      "Ġneed": 1803,
      "Ġide": 1804,
      "urric": 1805,
      "Ġsuper": 1806,
      "Ġfact": 1807,
      "Ġ28": 1808,
      "Ġwent": 1809,
      "Ġinterest": 1810,
      "ĠThese": 1811,
      "Ġfem": 1812,
      "pec": 1813,
      "rick": 1814,
      "Ġ2012": 1815,
      "Ġcountry": 1816,
      "af": 1817,
      "Ġadm": 1818,
      "Ġhimself": 1819,
      "ape": 1820,
      "Ġfire": 1821,
      "Ġhig": 1822,
      "Ġpress": 1823,
      "Ġacross": 1824,
      "ĠTr": 1825,
      "ĠLeague": 1826,
      "Ġdeveloped": 1827,
      "aign": 1828,
      "outher": 1829,
      "Ġel": 1830,
      "Ġrad": 1831,
      "ille": 1832,
      "play": 1833,
      "ither": 1834,
      "Ġchart": 1835,
      "ration": 1836,
      "Ġbody": 1837,
      "Ġdied": 1838,
      "Ġ27": 1839,
      "Ġpat": 1840,
      "ĠLond": 1841,
      "Ġbus": 1842,
      "Ġintrodu": 1843,
      "ĠSu": 1844,
      "Ġson": 1845,
      "ĠSw": 1846,
      "aces": 1847,
      "hern": 1848,
      "Ġannoun": 1849,
      "den": 1850,
      "ament": 1851,
      "outhern": 1852,
      "ĠLondon": 1853,
      "ĠComp": 1854,
      "Ġsignific": 1855,
      "Ġmatch": 1856,
      "iness": 1857,
      "Ġconv": 1858,
      "Ġstat": 1859,
      "Ġfelt": 1860,
      "ĠEx": 1861,
      "Ġnoted": 1862,
      "yn": 1863,
      "oll": 1864,
      "Ġdiv": 1865,
      "idence": 1866,
      "Ġdevelopment": 1867,
      "utes": 1868,
      "Ġke": 1869,
      "Ġage": 1870,
      "Ġproduc": 1871,
      "Ġtelevision": 1872,
      "ĠArmy": 1873,
      "orse": 1874,
      "ĠMcC": 1875,
      "Ġcontrol": 1876,
      "fic": 1877,
      "Ġsoc": 1878,
      "Ġmm": 1879,
      "Ġaway": 1880,
      "Ġpopular": 1881,
      "ĠGeneral": 1882,
      "Ġanim": 1883,
      "Ġfeet": 1884,
      "lished": 1885,
      "aul": 1886,
      "Ġdestroy": 1887,
      "Ġground": 1888,
      "iment": 1889,
      "irc": 1890,
      "ination": 1891,
      "Ġ189": 1892,
      "Ġdiscover": 1893,
      "ublic": 1894,
      "Ġintern": 1895,
      "aint": 1896,
      "Ġ2013": 1897,
      "Ġseen": 1898,
      "Ġwriting": 1899,
      "ĠCo": 1900,
      "ĠRoy": 1901,
      "ford": 1902,
      "Ġbo": 1903,
      "omb": 1904,
      "Ġpresent": 1905,
      "ĠSm": 1906,
      "Ġreached": 1907,
      "aged": 1908,
      "Ġsuff": 1909,
      "Ġmonths": 1910,
      "ĠAmerica": 1911,
      "Ġestablished": 1912,
      "Ġgl": 1913,
      "ords": 1914,
      "ĠAustralia": 1915,
      "Ġpra": 1916,
      "Ġblack": 1917,
      "work": 1918,
      "Ġcast": 1919,
      "Ġft": 1920,
      "ĠâĢĻ": 1921,
      "Ġthroughout": 1922,
      "ploy": 1923,
      "Ġpopulation": 1924,
      "Ġstruct": 1925,
      "Ġnovel": 1926,
      "aff": 1927,
      "ries": 1928,
      "itar": 1929,
      "Ġlittle": 1930,
      "Ġval": 1931,
      "ĠAfric": 1932,
      "less": 1933,
      "ĠMiss": 1934,
      "ising": 1935,
      "ster": 1936,
      "Ġwhite": 1937,
      "iber": 1938,
      "Ġaward": 1939,
      "reg": 1940,
      "aly": 1941,
      "Ġsuccessful": 1942,
      "ades": 1943,
      "Ġthought": 1944,
      "Ġstarted": 1945,
      "Ġsite": 1946,
      "ĠCounty": 1947,
      "Ġsqu": 1948,
      "Ġlook": 1949,
      "Ġremained": 1950,
      "isted": 1951,
      "ray": 1952,
      "Ġnight": 1953,
      "ĠSte": 1954,
      "Ġoccur": 1955,
      "Ġimportant": 1956,
      "ases": 1957,
      "Ġcampaign": 1958,
      "ampionship": 1959,
      "itted": 1960,
      "amb": 1961,
      "Ġsee": 1962,
      "Ġget": 1963,
      "Ġforces": 1964,
      "Ġmiles": 1965,
      "Ġer": 1966,
      "leet": 1967,
      "ĠPol": 1968,
      "Ġsw": 1969,
      "Ġfull": 1970,
      "ington": 1971,
      "urricane": 1972,
      "Ġnational": 1973,
      "Ġbegin": 1974,
      "Ġelect": 1975,
      "ĠEar": 1976,
      "Ġrank": 1977,
      "most": 1978,
      "Ġseven": 1979,
      "Ġenc": 1980,
      "Ġsignificant": 1981,
      "Ġtechn": 1982,
      "ways": 1983,
      "Ġtoo": 1984,
      "Ġareas": 1985,
      "ream": 1986,
      "ask": 1987,
      "Ġstyle": 1988,
      "vers": 1989,
      "Ġcult": 1990,
      "Ġofficial": 1991,
      "ĠPort": 1992,
      "Ġtyp": 1993,
      "lect": 1994,
      "Ġrelations": 1995,
      "ivil": 1996,
      "Ġarm": 1997,
      "ogn": 1998,
      "Ġcross": 1999,
      "Ġaud": 2000,
      "ĠStreet": 2001,
      "Ġcor": 2002,
      "Ġste": 2003,
      "Ġcond": 2004,
      "ĠChristian": 2005,
      "Ġsum": 2006,
      "Ġtour": 2007,
      "ĠMed": 2008,
      "Ġbattle": 2009,
      "Ġvarious": 2010,
      "day": 2011,
      "ĠSim": 2012,
      "Ġisland": 2013,
      "abor": 2014,
      "Ġable": 2015,
      "Ġident": 2016,
      "Ġpromot": 2017,
      "ality": 2018,
      "Ġnon": 2019,
      "imately": 2020,
      "Ġmodern": 2021,
      "Ġlik": 2022,
      "Ġdoes": 2023,
      "Ġcharacters": 2024,
      "ĠBlack": 2025,
      "ym": 2026,
      "Ġearl": 2027,
      "Ġcreated": 2028,
      "ĠJames": 2029,
      "ael": 2030,
      "uck": 2031,
      "Ġaver": 2032,
      "Ġmount": 2033,
      "Ġrev": 2034,
      "iting": 2035,
      "alth": 2036,
      "ĠHigh": 2037,
      "Ġfav": 2038,
      "ample": 2039,
      "Ġagre": 2040,
      "Ġprocess": 2041,
      "Ġbroad": 2042,
      "rap": 2043,
      "Ġlet": 2044,
      "Ġpolitical": 2045,
      "reek": 2046,
      "asing": 2047,
      "ĠGl": 2048,
      "Ġprim": 2049,
      "Ġservice": 2050,
      "gr": 2051,
      "olution": 2052,
      "ressed": 2053,
      "Ġentire": 2054,
      "Ġput": 2055,
      "Ġ40": 2056,
      "int": 2057,
      "Ġgrow": 2058,
      "ĠPer": 2059,
      "iers": 2060,
      "alls": 2061,
      "ertain": 2062,
      "Ġconstruction": 2063,
      "Ġtropical": 2064,
      "ĠRoman": 2065,
      "ĠRober": 2066,
      "rie": 2067,
      "Ġmeet": 2068,
      "con": 2069,
      "Ġloss": 2070,
      "Ġactiv": 2071,
      "Ġcy": 2072,
      "ought": 2073,
      "Ġfollowed": 2074,
      "Ġhuman": 2075,
      "ope": 2076,
      "Ġspecial": 2077,
      "Ġimpro": 2078,
      "oice": 2079,
      "ett": 2080,
      "Ġcaused": 2081,
      "ned": 2082,
      "ze": 2083,
      "Ġbar": 2084,
      "Ġkilled": 2085,
      "ĠRoad": 2086,
      "Ġrange": 2087,
      "Ġperformed": 2088,
      "ĠJapanese": 2089,
      "icated": 2090,
      "ĠRep": 2091,
      "Ġ29": 2092,
      "Ġpit": 2093,
      "Ġpri": 2094,
      "Ġguns": 2095,
      "Ġhit": 2096,
      "ĠPhil": 2097,
      "ĠReg": 2098,
      "Ġdecided": 2099,
      "Ġredu": 2100,
      "ization": 2101,
      "ĠSec": 2102,
      "Ġtaken": 2103,
      "Ġcou": 2104,
      "Ġpred": 2105,
      "Ġforce": 2106,
      "Ġborn": 2107,
      "Ġvill": 2108,
      "lant": 2109,
      "Ġlocated": 2110,
      "Ġcell": 2111,
      "alion": 2112,
      "Ġothers": 2113,
      "Ġsett": 2114,
      "Ġinstead": 2115,
      "Ġask": 2116,
      "ĠPres": 2117,
      "Ġvol": 2118,
      "Ġplayers": 2119,
      "Ġformed": 2120,
      "ana": 2121,
      "ĠMad": 2122,
      "Ġ2005": 2123,
      "Ġaircraft": 2124,
      "Ġround": 2125,
      "Ã¡": 2126,
      "ĠCro": 2127,
      "Ġbecom": 2128,
      "Ġserved": 2129,
      "emy": 2130,
      "Ġprot": 2131,
      "Ġ186": 2132,
      "Ġcompleted": 2133,
      "ĠAustralian": 2134,
      "ump": 2135,
      "ened": 2136,
      "Ġtoget": 2137,
      "rict": 2138,
      "Ġtogether": 2139,
      "Ġtro": 2140,
      "Ġmix": 2141,
      "ĠRec": 2142,
      "ĠSong": 2143,
      "Ġperformance": 2144,
      "ids": 2145,
      "Ġcrew": 2146,
      "cast": 2147,
      "Ġcop": 2148,
      "rought": 2149,
      "Ġmother": 2150,
      "ument": 2151,
      "Ġadded": 2152,
      "Ġannounced": 2153,
      "ĠBill": 2154,
      "ĠRich": 2155,
      "board": 2156,
      "ency": 2157,
      "Ġyoung": 2158,
      "enth": 2159,
      "Ġappeared": 2160,
      "epend": 2161,
      "rest": 2162,
      "ivid": 2163,
      "Ġbase": 2164,
      "Ġsurv": 2165,
      "ĠTo": 2166,
      "eth": 2167,
      "Ġ!": 2168,
      "ĠMon": 2169,
      "ĠYou": 2170,
      "Ġonce": 2171,
      "ĠIndian": 2172,
      "ĠAng": 2173,
      "Ġgeneral": 2174,
      "enced": 2175,
      "Ġhold": 2176,
      "ĠBut": 2177,
      "ald": 2178,
      "Ġarg": 2179,
      "ĠGeorge": 2180,
      "field": 2181,
      "Ġ188": 2182,
      "Ġrock": 2183,
      "ficult": 2184,
      "ĠSer": 2185,
      "ological": 2186,
      "Ġfac": 2187,
      "Ġevents": 2188,
      "iron": 2189,
      "ully": 2190,
      "elling": 2191,
      "Ġcost": 2192,
      "Ġknow": 2193,
      "Ġcreat": 2194,
      "azine": 2195,
      "por": 2196,
      "urb": 2197,
      "Ġleast": 2198,
      "Ġdifficult": 2199,
      "Ġtradition": 2200,
      "ĠRoyal": 2201,
      "ĠIsland": 2202,
      "Ġcirc": 2203,
      "Ġwomen": 2204,
      "omm": 2205,
      "Ġcomment": 2206,
      "Ġproble": 2207,
      "Ġchurch": 2208,
      "Ġrecogn": 2209,
      "Ġmot": 2210,
      "Ġmember": 2211,
      "Ġpeak": 2212,
      "Ġ2004": 2213,
      "Ġcoast": 2214,
      "gg": 2215,
      "odes": 2216,
      "Ġbehind": 2217,
      "Ġlive": 2218,
      "Ġexample": 2219,
      "dle": 2220,
      "Ġsepar": 2221,
      "ected": 2222,
      "Ġupon": 2223,
      "Ġeventually": 2224,
      "Ġrelationship": 2225,
      "here": 2226,
      "ĠKe": 2227,
      "ĠChurch": 2228,
      "Ġfront": 2229,
      "Ġhy": 2230,
      "Ġ2003": 2231,
      "Ġtravel": 2232,
      "Ġz": 2233,
      "Ġbird": 2234,
      "ĠAtlant": 2235,
      "sp": 2236,
      "chie": 2237,
      "Ġgenerally": 2238,
      "Ġtre": 2239,
      "ceed": 2240,
      "Ġassoci": 2241,
      "Ġwife": 2242,
      "ĠSome": 2243,
      "Ġprofess": 2244,
      "Ġcoun": 2245,
      "Ġball": 2246,
      "ĠThom": 2247,
      "Ġ185": 2248,
      "ĠIr": 2249,
      "ĠEast": 2250,
      "Ġstation": 2251,
      "umb": 2252,
      "aper": 2253,
      "Ġcut": 2254,
      "ems": 2255,
      "Ġsaw": 2256,
      "Ġhost": 2257,
      "Ġaction": 2258,
      "igade": 2259,
      "Ġ31": 2260,
      "Ġquest": 2261,
      "Ġweeks": 2262,
      "ĠOld": 2263,
      "ĠBrown": 2264,
      "ying": 2265,
      "iding": 2266,
      "xic": 2267,
      "eder": 2268,
      "oul": 2269,
      "ĠIntern": 2270,
      "iction": 2271,
      "Ġtreat": 2272,
      "Ġfif": 2273,
      "Ġstri": 2274,
      "ements": 2275,
      "Ġaccept": 2276,
      "Ġfeatures": 2277,
      "Ġmater": 2278,
      "Ġreb": 2279,
      "Ġrather": 2280,
      "Ġcoll": 2281,
      "ators": 2282,
      "Ġmass": 2283,
      "ential": 2284,
      "aching": 2285,
      "Ġworked": 2286,
      "Ġalmost": 2287,
      "Ġ2014": 2288,
      "Ġtest": 2289,
      "Ġfight": 2290,
      "ule": 2291,
      "Ġclose": 2292,
      "ength": 2293,
      "Ġce": 2294,
      "Ġfig": 2295,
      "Ġindivid": 2296,
      "Ġmult": 2297,
      "Ġcritics": 2298,
      "Ġprovided": 2299,
      "Ġplaying": 2300,
      "Ġopened": 2301,
      "Ġlaun": 2302,
      "Ġmer": 2303,
      "Ġclos": 2304,
      "cent": 2305,
      "off": 2306,
      "Ġrese": 2307,
      "Ġeither": 2308,
      "acy": 2309,
      "Ġpresident": 2310,
      "ara": 2311,
      "ĠMag": 2312,
      "Ġestim": 2313,
      "Ġwid": 2314,
      "Ġfoc": 2315,
      "Ġren": 2316,
      "Ġoriginally": 2317,
      "istic": 2318,
      "medi": 2319,
      "ĠMor": 2320,
      "olf": 2321,
      "Ġbelieved": 2322,
      "Ġbrought": 2323,
      "ĠMount": 2324,
      "Ġheavy": 2325,
      "ĠPe": 2326,
      "ĠRed": 2327,
      "Ġsequ": 2328,
      "Ġvoc": 2329,
      "igned": 2330,
      "Ġleading": 2331,
      "Ġdev": 2332,
      "orts": 2333,
      "Ġappoin": 2334,
      "ĠMil": 2335,
      "ush": 2336,
      "Ġroute": 2337,
      "ĠSan": 2338,
      "Ġregion": 2339,
      "Ġinj": 2340,
      "Ġlack": 2341,
      "cher": 2342,
      "ĠAct": 2343,
      "aves": 2344,
      "Ġrespect": 2345,
      "Ġneg": 2346,
      "ourn": 2347,
      "ĠHen": 2348,
      "Ġsouthern": 2349,
      "Ġnar": 2350,
      "rab": 2351,
      "Ġbusiness": 2352,
      "ica": 2353,
      "ius": 2354,
      "ĠEv": 2355,
      "Ġplaced": 2356,
      "Ġscored": 2357,
      "Ġallowed": 2358,
      "Ġdou": 2359,
      "Ġrelig": 2360,
      "Ġcase": 2361,
      "alt": 2362,
      "urg": 2363,
      "Ġrepresent": 2364,
      "iation": 2365,
      "men": 2366,
      "cil": 2367,
      "Ġvictory": 2368,
      "Ġill": 2369,
      "ulf": 2370,
      "Ġsele": 2371,
      "Ġ500": 2372,
      "ĠDavid": 2373,
      "for": 2374,
      "Ġlength": 2375,
      "ude": 2376,
      "Ġsour": 2377,
      "Ġinform": 2378,
      "erous": 2379,
      "Ġfund": 2380,
      "Ġcommer": 2381,
      "Ġexist": 2382,
      "ĠRobert": 2383,
      "Ġwanted": 2384,
      "angu": 2385,
      "oney": 2386,
      "oring": 2387,
      "ĠTwo": 2388,
      "ĠLa": 2389,
      "Ġinsp": 2390,
      "ipp": 2391,
      "Ġhon": 2392,
      "Ġsex": 2393,
      "Ġparticularly": 2394,
      "Ġworks": 2395,
      "Ġpoints": 2396,
      "Ġnomin": 2397,
      "ĠPal": 2398,
      "Ġprob": 2399,
      "Ġesc": 2400,
      "ĠFollow": 2401,
      "Ġindust": 2402,
      "aps": 2403,
      "wood": 2404,
      "Ġinvest": 2405,
      "ĠVir": 2406,
      "Ġfinished": 2407,
      "Ġquick": 2408,
      "Ġdesigned": 2409,
      "Ġappearance": 2410,
      "arm": 2411,
      "ĠIre": 2412,
      "Ġvot": 2413,
      "Ġworking": 2414,
      "Ġfourth": 2415,
      "Ġbrother": 2416,
      "ique": 2417,
      "ills": 2418,
      "artment": 2419,
      "ino": 2420,
      "atural": 2421,
      "ĠHouse": 2422,
      "ellow": 2423,
      "Ġsubsequ": 2424,
      "Ġregular": 2425,
      "atory": 2426,
      "ĠMo": 2427,
      "ption": 2428,
      "liam": 2429,
      "Ġtowards": 2430,
      "ĠIreland": 2431,
      "ÃŃ": 2432,
      "head": 2433,
      "ĠSchool": 2434,
      "Ġeastern": 2435,
      "aval": 2436,
      "Ġ2015": 2437,
      "Ġfeatured": 2438,
      "Ġcurrent": 2439,
      "ĠFollowing": 2440,
      "BC": 2441,
      "go": 2442,
      "Ġey": 2443,
      "Ġmaterial": 2444,
      "ĠDay": 2445,
      "Ġ187": 2446,
      "ĠQue": 2447,
      "iol": 2448,
      "Ġsaying": 2449,
      "Ġaverage": 2450,
      "rain": 2451,
      "ĠOther": 2452,
      "ĠCompany": 2453,
      "ĠPaul": 2454,
      "ĠWhite": 2455,
      "Ġdamage": 2456,
      "ĠKingdom": 2457,
      "ĠPresident": 2458,
      "ving": 2459,
      "Ġpossible": 2460,
      "ĠÂ°": 2461,
      "com": 2462,
      "ps": 2463,
      "Ġmust": 2464,
      "ĠGod": 2465,
      "Ġlargest": 2466,
      "Ġphys": 2467,
      "lic": 2468,
      "inal": 2469,
      "stit": 2470,
      "ida": 2471,
      "ĠEm": 2472,
      "Ġexc": 2473,
      "Ġsoon": 2474,
      "erved": 2475,
      "Ġbi": 2476,
      "anding": 2477,
      "oph": 2478,
      "Ġmove": 2479,
      "Ġinvolved": 2480,
      "ĠNavy": 2481,
      "Ġ2000": 2482,
      "ffic": 2483,
      "Ġpositive": 2484,
      "ĠPlay": 2485,
      "orpor": 2486,
      "ĠDespite": 2487,
      "ĠRepublic": 2488,
      "sel": 2489,
      "Ġopening": 2490,
      "Ġdraw": 2491,
      "ĠPart": 2492,
      "ĠGr": 2493,
      "Ġflight": 2494,
      "Ġregard": 2495,
      "liament": 2496,
      "Ġfree": 2497,
      "Ġusually": 2498,
      "Ġscene": 2499,
      "Ġspace": 2500,
      "Ġdirected": 2501,
      "ĠFrance": 2502,
      "ĠMichael": 2503,
      "ming": 2504,
      "ĠSqu": 2505,
      "Ġstars": 2506,
      "Ġriver": 2507,
      "Ġengine": 2508,
      "Ġreve": 2509,
      "ĠMary": 2510,
      "Ġdirector": 2511,
      "ata": 2512,
      "ĠMac": 2513,
      "Ġtransfer": 2514,
      "Ġmeas": 2515,
      "cial": 2516,
      "uel": 2517,
      "tt": 2518,
      "Ġachie": 2519,
      "ĠFrom": 2520,
      "Ġpract": 2521,
      "ston": 2522,
      "Ġelements": 2523,
      "mar": 2524,
      "Ġproper": 2525,
      "Ġoutside": 2526,
      "Ġmaint": 2527,
      "ĠCanada": 2528,
      "Ġhours": 2529,
      "ama": 2530,
      "ĠMost": 2531,
      "Ġcontract": 2532,
      "ĠColle": 2533,
      "ores": 2534,
      "uk": 2535,
      "ĠMy": 2536,
      "ĠFlor": 2537,
      "ĠEuropean": 2538,
      "Ġfootball": 2539,
      "Ġterrit": 2540,
      "Ġlangu": 2541,
      "Ġincreased": 2542,
      "ĠBest": 2543,
      "ago": 2544,
      "Ġking": 2545,
      "Ġevidence": 2546,
      "ĠMexic": 2547,
      "ĠSch": 2548,
      "ĠQu": 2549,
      "Ġly": 2550,
      "Ġmean": 2551,
      "Ġgoal": 2552,
      "Ġfemale": 2553,
      "val": 2554,
      "Ġ2001": 2555,
      "Ġaccount": 2556,
      "Ġhighway": 2557,
      "Ġavail": 2558,
      "Ġparticip": 2559,
      "etwork": 2560,
      "Ġwhom": 2561,
      "Ġve": 2562,
      "Ġreplaced": 2563,
      "Ġhop": 2564,
      "ift": 2565,
      "Ġdisp": 2566,
      "Ġ80": 2567,
      "itz": 2568,
      "ĠMid": 2569,
      "ĠHam": 2570,
      "ishing": 2571,
      "Ġaut": 2572,
      "ĠSy": 2573,
      "Ġjoined": 2574,
      "Ġlove": 2575,
      "Ġstage": 2576,
      "bert": 2577,
      "ference": 2578,
      "Ġgrad": 2579,
      "Ġtold": 2580,
      "igan": 2581,
      "Ġexec": 2582,
      "lement": 2583,
      "ĠHall": 2584,
      "pper": 2585,
      "Ġ2002": 2586,
      "Ġcondu": 2587,
      "ĠOl": 2588,
      "Ġpriv": 2589,
      "Ġobject": 2590,
      "Ġsigned": 2591,
      "ĠThomas": 2592,
      "usion": 2593,
      "ĠJenn": 2594,
      "Ġcentral": 2595,
      "Ġtroops": 2596,
      "aire": 2597,
      "west": 2598,
      "edy": 2599,
      "itte": 2600,
      "Ġ35": 2601,
      "Ġearlier": 2602,
      "wer": 2603,
      "Ġmetal": 2604,
      "Ġruns": 2605,
      "Ġissue": 2606,
      "ites": 2607,
      "Ġcru": 2608,
      "Ġhous": 2609,
      "Ġstay": 2610,
      "ĠGame": 2611,
      "aker": 2612,
      "now": 2613,
      "Ġtaking": 2614,
      "Ġnuc": 2615,
      "ributed": 2616,
      "Ġrespons": 2617,
      "Ġinitially": 2618,
      "Ġnorthern": 2619,
      "ville": 2620,
      "irth": 2621,
      "iff": 2622,
      "Ġpreviously": 2623,
      "ground": 2624,
      "Ġfort": 2625,
      "Ġforced": 2626,
      "ĠDyl": 2627,
      "ĠNY": 2628,
      "antry": 2629,
      "ĠVal": 2630,
      "Ġcommission": 2631,
      "Ġstudy": 2632,
      "ĠDylan": 2633,
      "adron": 2634,
      "ĠGrand": 2635,
      "Ġemploy": 2636,
      "ĠVirgin": 2637,
      "rey": 2638,
      "Ġpur": 2639,
      "ĠTimes": 2640,
      "Ġthreat": 2641,
      "Ġstop": 2642,
      "Ġabove": 2643,
      "orses": 2644,
      "Ġpraised": 2645,
      "alv": 2646,
      "Ġfeel": 2647,
      "ĠInternational": 2648,
      "ĠSom": 2649,
      "Ġspent": 2650,
      "anned": 2651,
      "itor": 2652,
      "Ġshot": 2653,
      "Ġenough": 2654,
      "Ġremov": 2655,
      "Ġquar": 2656,
      "bor": 2657,
      "fall": 2658,
      "Ġclear": 2659,
      "ĠTown": 2660,
      "utive": 2661,
      "uation": 2662,
      "Ġreason": 2663,
      "Ġnine": 2664,
      "Ġbeg": 2665,
      "ĠFirst": 2666,
      "Ġvir": 2667,
      "Ġrace": 2668,
      "Ġhighest": 2669,
      "heast": 2670,
      "Ġpers": 2671,
      "asion": 2672,
      "Ġhom": 2673,
      "ĠBra": 2674,
      "ĠHa": 2675,
      "ĠMusic": 2676,
      "Ġbill": 2677,
      "Ġgod": 2678,
      "ĠGreat": 2679,
      "ateg": 2680,
      "Ġscen": 2681,
      "Ġwriter": 2682,
      "Ġden": 2683,
      "Ġhard": 2684,
      "oke": 2685,
      "Ġspecific": 2686,
      "Ġaccording": 2687,
      "Ġclaimed": 2688,
      "Ġsometimes": 2689,
      "Ġsil": 2690,
      "Ġhurricane": 2691,
      "ĠBer": 2692,
      "Ġwestern": 2693,
      "ota": 2694,
      "ĠHol": 2695,
      "conom": 2696,
      "Ġdro": 2697,
      "ibility": 2698,
      "Ġinterview": 2699,
      "Ġrequired": 2700,
      "Ġmanager": 2701,
      "oe": 2702,
      "Ġmight": 2703,
      "ĠNor": 2704,
      "eum": 2705,
      "ma": 2706,
      "Ġthink": 2707,
      "ĠUnion": 2708,
      "Ġaccom": 2709,
      "ĠFrank": 2710,
      "Ġbreak": 2711,
      "Ġmph": 2712,
      "rated": 2713,
      "Ġpot": 2714,
      "ĠAg": 2715,
      "etic": 2716,
      "ula": 2717,
      "ĠLove": 2718,
      "Ġpoor": 2719,
      "Ġtru": 2720,
      "ander": 2721,
      "iforn": 2722,
      "Ġ36": 2723,
      "Ġ1990": 2724,
      "Ġidea": 2725,
      "ĠCup": 2726,
      "ĠHenry": 2727,
      "eal": 2728,
      "Ġcenter": 2729,
      "Ġpassed": 2730,
      "Ġdebut": 2731,
      "ĠIm": 2732,
      "ĠIndia": 2733,
      "ĠÂ£": 2734,
      "atin": 2735,
      "Ġpay": 2736,
      "Ġviol": 2737,
      "ĠCaliforn": 2738,
      "Ġintroduced": 2739,
      "Ġavailable": 2740,
      "aled": 2741,
      "Ġhorse": 2742,
      "osing": 2743,
      "Ġitself": 2744,
      "Ġabs": 2745,
      "Ġscreen": 2746,
      "hib": 2747,
      "Ġdespite": 2748,
      "Ġ60": 2749,
      "Ġpast": 2750,
      "onst": 2751,
      "Ġdon": 2752,
      "Ġrail": 2753,
      "Ġ1980": 2754,
      "ĠFlorida": 2755,
      "Ã³": 2756,
      "Ġchange": 2757,
      "Ġsize": 2758,
      "ĠHot": 2759,
      "Ġacqu": 2760,
      "gl": 2761,
      "oid": 2762,
      "ĠCong": 2763,
      "Ġ184": 2764,
      "ĠThat": 2765,
      "Ġmi": 2766,
      "Ġexcept": 2767,
      "Ġoffice": 2768,
      "Ġindepend": 2769,
      "Ġcivil": 2770,
      "Ġfall": 2771,
      "Ġpie": 2772,
      "ĠAward": 2773,
      "ĠBu": 2774,
      "ĠPac": 2775,
      "Ġ45": 2776,
      "Ġflag": 2777,
      "Ġrap": 2778,
      "ready": 2779,
      "Ġfrequ": 2780,
      "gen": 2781,
      "Ġwhose": 2782,
      "Ġcome": 2783,
      "Ġsuggested": 2784,
      "Ġawarded": 2785,
      "of": 2786,
      "ĠÃ": 2787,
      "Ġinn": 2788,
      "Ġtourn": 2789,
      "ilities": 2790,
      "ĠMont": 2791,
      "ability": 2792,
      "Ġparts": 2793,
      "ĠCarol": 2794,
      "ĠCalifornia": 2795,
      "ĠAc": 2796,
      "Ġgive": 2797,
      "Ġimmedi": 2798,
      "oms": 2799,
      "rag": 2800,
      "ĠEr": 2801,
      "Ġsym": 2802,
      "Ġbuildings": 2803,
      "Ġeduc": 2804,
      "Ġcourt": 2805,
      "inist": 2806,
      "ĠBay": 2807,
      "ume": 2808,
      "ĠChampionship": 2809,
      "Ġarmy": 2810,
      "Ġended": 2811,
      "Ġepisodes": 2812,
      "Ġmagazine": 2813,
      "Ġstren": 2814,
      "ĠDu": 2815,
      "ĠRock": 2816,
      "Ġsurf": 2817,
      "Ġcal": 2818,
      "Ġcertain": 2819,
      "Ġwithd": 2820,
      "ĠPeter": 2821,
      "ĠRes": 2822,
      "ulated": 2823,
      "pected": 2824,
      "Ġlarger": 2825,
      "Ġeffects": 2826,
      "Ġordered": 2827,
      "Ġestimated": 2828,
      "aut": 2829,
      "Ġlower": 2830,
      "Ġyard": 2831,
      "Ġ183": 2832,
      "Ġdisplay": 2833,
      "Ġrecording": 2834,
      "ĠJew": 2835,
      "elled": 2836,
      "Ġimm": 2837,
      "Ġbetter": 2838,
      "ification": 2839,
      "ittee": 2840,
      "ĠSen": 2841,
      "Ġgold": 2842,
      "ession": 2843,
      "Ġcontr": 2844,
      "Ġbeginning": 2845,
      "thlet": 2846,
      "ĠWales": 2847,
      "ĠStar": 2848,
      "Ġoperations": 2849,
      "Ġfriends": 2850,
      "osition": 2851,
      "ĠOs": 2852,
      "ranch": 2853,
      "ĠBattalion": 2854,
      "Ġfr": 2855,
      "Ġdi": 2856,
      "lying": 2857,
      "Ġalready": 2858,
      "Ġunc": 2859,
      "ĠDep": 2860,
      "ky": 2861,
      "Ġcat": 2862,
      "arily": 2863,
      "Ġincreasing": 2864,
      "ĠRichard": 2865,
      "Ġwat": 2866,
      "aring": 2867,
      "olic": 2868,
      "Ġdeal": 2869,
      "Ġtraining": 2870,
      "Ġturned": 2871,
      "Ġproposed": 2872,
      "ĠMichigan": 2873,
      "ĠBattle": 2874,
      "ĠPacific": 2875,
      "Ġbank": 2876,
      "Ġpen": 2877,
      "ĠDr": 2878,
      "ĠJe": 2879,
      "Ġwinds": 2880,
      "pecially": 2881,
      "aries": 2882,
      "Ġunits": 2883,
      "Ġshows": 2884,
      "Ġapprox": 2885,
      "Ġfut": 2886,
      "Ġstudio": 2887,
      "Ġgoing": 2888,
      "Ġstreng": 2889,
      "ault": 2890,
      "Ġ?": 2891,
      "leg": 2892,
      "ĠHill": 2893,
      "Ġcommercial": 2894,
      "Ġwood": 2895,
      "Ġmem": 2896,
      "ĠEver": 2897,
      "Ġpercent": 2898,
      "Ġremains": 2899,
      "Ġbreed": 2900,
      "ĠAssoci": 2901,
      "ĠGold": 2902,
      "ĠJust": 2903,
      "Ġsubject": 2904,
      "Ġbattles": 2905,
      "Ġinternational": 2906,
      "porary": 2907,
      "cript": 2908,
      "Ġdaugh": 2909,
      "ĠSl": 2910,
      "cts": 2911,
      "Ġremain": 2912,
      "Ġsurround": 2913,
      "Ġespecially": 2914,
      "Ġlimited": 2915,
      "Ġdeterm": 2916,
      "Ġpain": 2917,
      "Ġeconom": 2918,
      "ests": 2919,
      "illa": 2920,
      "Ġrul": 2921,
      "NA": 2922,
      "cer": 2923,
      "Ġtrib": 2924,
      "Ġwoman": 2925,
      "Ġcoin": 2926,
      "Ġpair": 2927,
      "Ġmiss": 2928,
      "unt": 2929,
      "Ġparty": 2930,
      "Ġassist": 2931,
      "inese": 2932,
      "Ġ1960": 2933,
      "ĠTex": 2934,
      "Ġreviews": 2935,
      "ergy": 2936,
      "ĠIf": 2937,
      "Ġwinning": 2938,
      "ĠCanadian": 2939,
      "Ġbroadcast": 2940,
      "ĠMark": 2941,
      "ĠBell": 2942,
      "ĠChinese": 2943,
      "ĠBritain": 2944,
      "Ġ1970": 2945,
      "to": 2946,
      "Ġche": 2947,
      "lex": 2948,
      "Ġadditional": 2949,
      "itch": 2950,
      "Ġfleet": 2951,
      "Ġremaining": 2952,
      "Ġstudents": 2953,
      "onn": 2954,
      "icle": 2955,
      "ĠDan": 2956,
      "Ġoccup": 2957,
      "rief": 2958,
      "band": 2959,
      "oor": 2960,
      "Ġbur": 2961,
      "ĠTom": 2962,
      "ĠBoy": 2963,
      "Ġconn": 2964,
      "Ġdoc": 2965,
      "ĠMany": 2966,
      "Ġstates": 2967,
      "ĠWil": 2968,
      "Ġleague": 2969,
      "Ġresearch": 2970,
      "rd": 2971,
      "ĠCharles": 2972,
      "ournal": 2973,
      "co": 2974,
      "Ġfood": 2975,
      "Ġmale": 2976,
      "ĠVict": 2977,
      "Ġflood": 2978,
      "Ġtransport": 2979,
      "Ġforest": 2980,
      "Ġparen": 2981,
      "vert": 2982,
      "ĠLou": 2983,
      "Ġblock": 2984,
      "Ġcomplet": 2985,
      "Ġsocial": 2986,
      "Ġstructure": 2987,
      "Ġmission": 2988,
      "acing": 2989,
      "ĠBrigade": 2990,
      "ography": 2991,
      "Ġlyric": 2992,
      "bers": 2993,
      "ih": 2994,
      "isl": 2995,
      "ĠWood": 2996,
      "Ġpark": 2997,
      "ĠWash": 2998,
      "rying": 2999,
      "acter": 3000,
      "lor": 3001,
      "Ġliter": 3002,
      "ĠBow": 3003,
      "raw": 3004,
      "ĠStud": 3005,
      "Ġnearly": 3006,
      "Ġkey": 3007,
      "Ġ75": 3008,
      "hips": 3009,
      "Ġfilms": 3010,
      "Ġgroups": 3011,
      "Ġvillage": 3012,
      "ios": 3013,
      "ĠRuss": 3014,
      "Ġsection": 3015,
      "Ġestablish": 3016,
      "Ġarrived": 3017,
      "ĠAtlantic": 3018,
      "Ġappointed": 3019,
      "Ġquickly": 3020,
      "inct": 3021,
      "reak": 3022,
      "Ġslow": 3023,
      "ĠSoc": 3024,
      "ĠCour": 3025,
      "Ġphot": 3026,
      "Ġkeep": 3027,
      "Ġprobably": 3028,
      "Ġbirth": 3029,
      "Ġdefend": 3030,
      "Ġprior": 3031,
      "ĠAngel": 3032,
      "ĠWashington": 3033,
      "Ġlived": 3034,
      "thing": 3035,
      "Ġrelated": 3036,
      "Ġmarried": 3037,
      "Ġsoldiers": 3038,
      "Ġcycl": 3039,
      "Ġquestion": 3040,
      "Ġcause": 3041,
      "Ġfailed": 3042,
      "Ġlab": 3043,
      "rian": 3044,
      "Ġ38": 3045,
      "Ġcomplex": 3046,
      "Ġanti": 3047,
      "Ġcred": 3048,
      "iser": 3049,
      "Ġburn": 3050,
      "Ġconcept": 3051,
      "ĠGovern": 3052,
      "Ġdate": 3053,
      "Ġlines": 3054,
      "vey": 3055,
      "ĠVirginia": 3056,
      "Ġintended": 3057,
      "Ġmoney": 3058,
      "Ġshoot": 3059,
      "ĠItal": 3060,
      "Ġexperience": 3061,
      "Ġcommunity": 3062,
      "ĠSmith": 3063,
      "Ġlatter": 3064,
      "ĠCrit": 3065,
      "change": 3066,
      "Ġvoice": 3067,
      "teen": 3068,
      "ha": 3069,
      "Ġsus": 3070,
      "itect": 3071,
      "ĠLenn": 3072,
      "Ġsupported": 3073,
      "Ġbomb": 3074,
      "Ġhorses": 3075,
      "ado": 3076,
      "lymp": 3077,
      "Ġgra": 3078,
      "Ġstaff": 3079,
      "Ġdecision": 3080,
      "Ġminutes": 3081,
      "Ġgoals": 3082,
      "Ġcomplete": 3083,
      "Ġpolice": 3084,
      "Ġdiscovered": 3085,
      "Ġasked": 3086,
      "ex": 3087,
      "Ġheav": 3088,
      "Ġanc": 3089,
      "ĠLater": 3090,
      "ĠOlymp": 3091,
      "ĠUK": 3092,
      "ĠChic": 3093,
      "Ġamount": 3094,
      "ĠTech": 3095,
      "onse": 3096,
      "Ġbrief": 3097,
      "Ġliving": 3098,
      "Ġlearn": 3099,
      "Ġscore": 3100,
      "key": 3101,
      "Ġcarried": 3102,
      "ĠJennings": 3103,
      "urt": 3104,
      "umber": 3105,
      "Ġlonger": 3106,
      "Ġbecoming": 3107,
      "Ġapproximately": 3108,
      "ĠMr": 3109,
      "ands": 3110,
      "Ġspeed": 3111,
      "Ġrare": 3112,
      "Ġcapital": 3113,
      "Ġfuture": 3114,
      "het": 3115,
      "ĠTV": 3116,
      "Ġexam": 3117,
      "Ġadop": 3118,
      "Ġchanges": 3119,
      "Ġproblems": 3120,
      "ee": 3121,
      "Ġtype": 3122,
      "Ġmixed": 3123,
      "Ġmusical": 3124,
      "Ġentered": 3125,
      "Ġdram": 3126,
      "ĠSun": 3127,
      "olves": 3128,
      "ĠLake": 3129,
      "hester": 3130,
      "Ġagreed": 3131,
      "ĠPenn": 3132,
      "Ġelection": 3133,
      "Ġchanged": 3134,
      "ĠAfrica": 3135,
      "ena": 3136,
      "ĠSam": 3137,
      "Ġconclud": 3138,
      "ĠUp": 3139,
      "Ġaccess": 3140,
      "ĠBillboard": 3141,
      "imum": 3142,
      "Ġstories": 3143,
      "ously": 3144,
      "ruction": 3145,
      "Ġenv": 3146,
      "ires": 3147,
      "light": 3148,
      "Ġthus": 3149,
      "abit": 3150,
      "Ġyards": 3151,
      "Ġ300": 3152,
      "Ġcompl": 3153,
      "Ġsummer": 3154,
      "back": 3155,
      "enz": 3156,
      "enty": 3157,
      "Ġindic": 3158,
      "Ġrunning": 3159,
      "Ġlikely": 3160,
      "ĠCroat": 3161,
      "ĠIrish": 3162,
      "ĠCollege": 3163,
      "hew": 3164,
      "Ġwide": 3165,
      "Ġnatural": 3166,
      "Ġnetwork": 3167,
      "Ġmostly": 3168,
      "Ġfeature": 3169,
      "ĠVictor": 3170,
      "asy": 3171,
      "Ġhapp": 3172,
      "ĠMa": 3173,
      "ĠDon": 3174,
      "ĠWestern": 3175,
      "ĠFort": 3176,
      "ĠVer": 3177,
      "Ġthemsel": 3178,
      "Ġminor": 3179,
      "Ġpoet": 3180,
      "Ġthemselves": 3181,
      "lin": 3182,
      "uals": 3183,
      "Ġlay": 3184,
      "Ġ70": 3185,
      "Ġmeth": 3186,
      "Ġmultip": 3187,
      "ĠChicago": 3188,
      "Ġbig": 3189,
      "ĠLaw": 3190,
      "Ġlanguage": 3191,
      "Ġpurch": 3192,
      "Ġincludes": 3193,
      "Ġ32": 3194,
      "Ġintens": 3195,
      "Ġprem": 3196,
      "Ġteams": 3197,
      "Ġmarket": 3198,
      "Ġdefeated": 3199,
      "Ġradio": 3200,
      "Ġdestroyed": 3201,
      "Ġfocus": 3202,
      "orial": 3203,
      "ĠHist": 3204,
      "Ġalways": 3205,
      "ĠGo": 3206,
      "order": 3207,
      "Ġearned": 3208,
      "Ġsmaller": 3209,
      "Ġhelped": 3210,
      "ospital": 3211,
      "Ġsch": 3212,
      "amer": 3213,
      "ĠFeder": 3214,
      "lands": 3215,
      "Ġsyn": 3216,
      "ĠSpan": 3217,
      "Ġtons": 3218,
      "inent": 3219,
      "Ġder": 3220,
      "Ġemb": 3221,
      "Ġconcern": 3222,
      "AA": 3223,
      "Ġword": 3224,
      "atively": 3225,
      "Ġcm": 3226,
      "Ġmach": 3227,
      "ĠPri": 3228,
      "Ġdiss": 3229,
      "Ġbridge": 3230,
      "incip": 3231,
      "Ġpressure": 3232,
      "Ġfail": 3233,
      "ises": 3234,
      "Ġleaving": 3235,
      "Ġnumbers": 3236,
      "ĠSuper": 3237,
      "Ġlo": 3238,
      "Ġens": 3239,
      "orning": 3240,
      "Ġ1999": 3241,
      "Ġpoem": 3242,
      "Ġlaunched": 3243,
      "Ġscenes": 3244,
      "iant": 3245,
      "ĠRob": 3246,
      "ĠJim": 3247,
      "ĠOver": 3248,
      "sec": 3249,
      "ĠScott": 3250,
      "ĠIll": 3251,
      "Ġarran": 3252,
      "ĠYear": 3253,
      "Ġranked": 3254,
      "Ġdone": 3255,
      "ĠGar": 3256,
      "Ġmoving": 3257,
      "undred": 3258,
      "Ġquarter": 3259,
      "ging": 3260,
      "wh": 3261,
      "Ġsem": 3262,
      "Ġface": 3263,
      "ĠSir": 3264,
      "ĠMill": 3265,
      "Ġforward": 3266,
      "Ġdise": 3267,
      "Ġterms": 3268,
      "Ġfavor": 3269,
      "ĠLennon": 3270,
      "Ġmur": 3271,
      "ership": 3272,
      "ĠGreen": 3273,
      "uments": 3274,
      "Ġprovide": 3275,
      "ĠIII": 3276,
      "Ġcaptured": 3277,
      "Ġtemper": 3278,
      "Ġoccurred": 3279,
      "Ġcele": 3280,
      "Ġreligious": 3281,
      "rack": 3282,
      "alled": 3283,
      "quar": 3284,
      "Ġmedia": 3285,
      "Ġfifth": 3286,
      "idents": 3287,
      "ĠKh": 3288,
      "Ġpersonal": 3289,
      "uing": 3290,
      "ison": 3291,
      "Ġdomin": 3292,
      "ĠTor": 3293,
      "ĠSaint": 3294,
      "Ġdead": 3295,
      "Ġleave": 3296,
      "ells": 3297,
      "Ġrecords": 3298,
      "Ġvisit": 3299,
      "ady": 3300,
      "ĠWal": 3301,
      "Ġrain": 3302,
      "Ġconsider": 3303,
      "gely": 3304,
      "ki": 3305,
      "ks": 3306,
      "anced": 3307,
      "ĠSince": 3308,
      "ĠCare": 3309,
      "Ġwhether": 3310,
      "Ġincrease": 3311,
      "Ġresponse": 3312,
      "ror": 3313,
      "isions": 3314,
      "ria": 3315,
      "Ġran": 3316,
      "ĠEarth": 3317,
      "Ġtournament": 3318,
      "ties": 3319,
      "ania": 3320,
      "ĠMet": 3321,
      "ĠPet": 3322,
      "Ġsea": 3323,
      "ĠOut": 3324,
      "Ġlocation": 3325,
      "ĠAssociation": 3326,
      "fect": 3327,
      "iring": 3328,
      "tered": 3329,
      "Ġscript": 3330,
      "Ġprivate": 3331,
      "Ġcer": 3332,
      "Ġnames": 3333,
      "ĠNort": 3334,
      "Ġdeep": 3335,
      "Ġnotes": 3336,
      "ples": 3337,
      "ĠSpok": 3338,
      "Ġflow": 3339,
      "Ġmakes": 3340,
      "Ġnature": 3341,
      "ĠInter": 3342,
      "Ġconsist": 3343,
      "Ġappears": 3344,
      "ĠMexico": 3345,
      "iest": 3346,
      "Ġboard": 3347,
      "Ġmom": 3348,
      "ĠFin": 3349,
      "eway": 3350,
      "Ġcontem": 3351,
      "Ġcreate": 3352,
      "ĠZeal": 3353,
      "Ġofficers": 3354,
      "ervation": 3355,
      "Ġmethod": 3356,
      "ĠHow": 3357,
      "anna": 3358,
      "Ġarchitect": 3359,
      "Ġdaughter": 3360,
      "nes": 3361,
      "icles": 3362,
      "ĠAwards": 3363,
      "Ġund": 3364,
      "Ġ33": 3365,
      "Ġuns": 3366,
      "Ġraised": 3367,
      "Ġmajority": 3368,
      "ĠJackson": 3369,
      "ĠTexas": 3370,
      "ĠArab": 3371,
      "Ġemer": 3372,
      "Ġadapt": 3373,
      "onds": 3374,
      "Ġcompan": 3375,
      "Ġcompared": 3376,
      "ĠZealand": 3377,
      "Ġsat": 3378,
      "Ġself": 3379,
      "Ġge": 3380,
      "Ġgir": 3381,
      "Ġoverall": 3382,
      "ĠEdward": 3383,
      "Ġmention": 3384,
      "ĠMer": 3385,
      "ĠMic": 3386,
      "ounds": 3387,
      "Ġselected": 3388,
      "oo": 3389,
      "Ġdark": 3390,
      "ĠTer": 3391,
      "aches": 3392,
      "ĠNot": 3393,
      "ocr": 3394,
      "Ġunderst": 3395,
      "Ġbring": 3396,
      "Ġdamaged": 3397,
      "Ġsomething": 3398,
      "oned": 3399,
      "ening": 3400,
      "Ġhealth": 3401,
      "ĠArt": 3402,
      "Ġlargely": 3403,
      "Ġmovement": 3404,
      "Ġprofessional": 3405,
      "Ġinspired": 3406,
      "imate": 3407,
      "ordan": 3408,
      "ĠViet": 3409,
      "ĠCourt": 3410,
      "action": 3411,
      "cing": 3412,
      "itude": 3413,
      "ĠFilm": 3414,
      "Ġcontains": 3415,
      "Ġ1950": 3416,
      "orps": 3417,
      "Ġlisted": 3418,
      "down": 3419,
      "Ġour": 3420,
      "Ġgot": 3421,
      "ĠBel": 3422,
      "riage": 3423,
      "oper": 3424,
      "Ġtheme": 3425,
      "ĠCarl": 3426,
      "Ġexperi": 3427,
      "ĠTay": 3428,
      "ams": 3429,
      "aded": 3430,
      "ĠBoth": 3431,
      "imin": 3432,
      "Ġlyrics": 3433,
      "ĠSpanish": 3434,
      "Ã¶": 3435,
      "ĠTra": 3436,
      "Ġgrand": 3437,
      "ĠFoot": 3438,
      "Ġshown": 3439,
      "Ġkind": 3440,
      "ĠGermany": 3441,
      "Äģ": 3442,
      "Ġri": 3443,
      "Ġboy": 3444,
      "stant": 3445,
      "ĠGulf": 3446,
      "Ġcourse": 3447,
      "Ġfunction": 3448,
      "Ġinvestig": 3449,
      "de": 3450,
      "Ġlog": 3451,
      "Ġconver": 3452,
      "andid": 3453,
      "Ġchall": 3454,
      "Ġcritical": 3455,
      "ĠHero": 3456,
      "gypt": 3457,
      "Ġbirds": 3458,
      "Ġdig": 3459,
      "ĠBus": 3460,
      "umn": 3461,
      "Ġnewsp": 3462,
      "Ġsurface": 3463,
      "iqu": 3464,
      "atives": 3465,
      "Ġlink": 3466,
      "osaur": 3467,
      "odies": 3468,
      "Ġcelebr": 3469,
      "awn": 3470,
      "reater": 3471,
      "Ġcountries": 3472,
      "Ġreferred": 3473,
      "Ġmeeting": 3474,
      "zz": 3475,
      "Ġplot": 3476,
      "Ġinitial": 3477,
      "Ġcopies": 3478,
      "ĠCath": 3479,
      "ĠLos": 3480,
      "Ġrat": 3481,
      "Ġ90": 3482,
      "Ġinfluence": 3483,
      "Ġcommented": 3484,
      "cul": 3485,
      "ederal": 3486,
      "Ġreally": 3487,
      "Ġthick": 3488,
      "Ġguitar": 3489,
      "aught": 3490,
      "Ġneeded": 3491,
      "ny": 3492,
      "Ġpil": 3493,
      "road": 3494,
      "ĠBur": 3495,
      "ĠJordan": 3496,
      "Ġjob": 3497,
      "ĠAnother": 3498,
      "ĠTaylor": 3499,
      "itation": 3500,
      "Ġbow": 3501,
      "Ġpow": 3502,
      "ĠCross": 3503,
      "ĠEgypt": 3504,
      "ĠUnder": 3505,
      "Ġnecess": 3506,
      "Ġ1995": 3507,
      "Ġ1930": 3508,
      "Ġproducer": 3509,
      "Ġwalk": 3510,
      "Ġfans": 3511,
      "ĠTre": 3512,
      "ĠMart": 3513,
      "uries": 3514,
      "ĠHel": 3515,
      "Ġupper": 3516,
      "hens": 3517,
      "Ġportray": 3518,
      "Ġdefeat": 3519,
      "Ġprimary": 3520,
      "fact": 3521,
      "hood": 3522,
      "ari": 3523,
      "ouri": 3524,
      "aily": 3525,
      "Ġmeant": 3526,
      "edo": 3527,
      "Ġtouch": 3528,
      "Ġnorm": 3529,
      "Ġ37": 3530,
      "Ġuniversity": 3531,
      "ga": 3532,
      "uit": 3533,
      "Ġx": 3534,
      "ĠMatt": 3535,
      "Ġplans": 3536,
      "Ġ181": 3537,
      "Ġfinally": 3538,
      "Ġconstructed": 3539,
      "cean": 3540,
      "ĠDo": 3541,
      "ĠOp": 3542,
      "Ġwhole": 3543,
      "ĠArch": 3544,
      "Ġlegisl": 3545,
      "Ġhigher": 3546,
      "Ġdouble": 3547,
      "Ġtalk": 3548,
      "ĠDou": 3549,
      "ĠRo": 3550,
      "Ġ47": 3551,
      "Ġfinanc": 3552,
      "Ġsubs": 3553,
      "Ġactive": 3554,
      "Ġdiscuss": 3555,
      "Ġassociated": 3556,
      "Ġmeaning": 3557,
      "Ġschol": 3558,
      "ĠBig": 3559,
      "imb": 3560,
      "ays": 3561,
      "ĠWork": 3562,
      "Ġplanned": 3563,
      "Ġadult": 3564,
      "Ġspir": 3565,
      "Ġ179": 3566,
      "Ġrapid": 3567,
      "ĠSpokane": 3568,
      "pan": 3569,
      "Ġwall": 3570,
      "ĠApp": 3571,
      "ĠCoun": 3572,
      "ĠCamp": 3573,
      "ĠCreek": 3574,
      "Ġcann": 3575,
      "Ġ1940": 3576,
      "ĠCentral": 3577,
      "ĠCarolina": 3578,
      "hold": 3579,
      "Ġdivision": 3580,
      "Ġreach": 3581,
      "ĠCor": 3582,
      "ĠBank": 3583,
      "acher": 3584,
      "utch": 3585,
      "umed": 3586,
      "aby": 3587,
      "Ġsched": 3588,
      "ĠFranc": 3589,
      "ĠHarrison": 3590,
      "ken": 3591,
      "tain": 3592,
      "Ġpath": 3593,
      "ĠTurn": 3594,
      "annel": 3595,
      "Ġslight": 3596,
      "erve": 3597,
      "ĠHaw": 3598,
      "Ġcompetition": 3599,
      "Ġstatus": 3600,
      "Ġsubsequently": 3601,
      "ped": 3602,
      "win": 3603,
      "Ġsen": 3604,
      "Ġaband": 3605,
      "Ġassigned": 3606,
      "Ġvariety": 3607,
      "Ġobserved": 3608,
      "cle": 3609,
      "kin": 3610,
      "Ġcle": 3611,
      "Ġgiving": 3612,
      "ĠBey": 3613,
      "ĠDom": 3614,
      "agon": 3615,
      "Ġroom": 3616,
      "ĠSever": 3617,
      "Ġnumerous": 3618,
      "lled": 3619,
      "ironment": 3620,
      "pris": 3621,
      "Ġult": 3622,
      "Ġbound": 3623,
      "ĠServ": 3624,
      "Ġsearch": 3625,
      "udd": 3626,
      "Ġunable": 3627,
      "ĠIts": 3628,
      "ibly": 3629,
      "Ġprincip": 3630,
      "Ġdepression": 3631,
      "Ġattacks": 3632,
      "Ġstandard": 3633,
      "Ġinformation": 3634,
      "Ġdoll": 3635,
      "Ġ1998": 3636,
      "Ġending": 3637,
      "Ġelected": 3638,
      "Ġattacked": 3639,
      "Ġrefused": 3640,
      "Ġservices": 3641,
      "Ġhands": 3642,
      "Ġissued": 3643,
      "Ġsuffered": 3644,
      "Ġtakes": 3645,
      "Ġhundred": 3646,
      "Ġthr": 3647,
      "ĠSing": 3648,
      "eler": 3649,
      "usband": 3650,
      "Ġtrade": 3651,
      "ĠEnter": 3652,
      "embly": 3653,
      "Ġartist": 3654,
      "ĠParliament": 3655,
      "Ġindividual": 3656,
      "Ġpurp": 3657,
      "can": 3658,
      "ĠBo": 3659,
      "ify": 3660,
      "Ġyet": 3661,
      "Ġscient": 3662,
      "Ġfill": 3663,
      "rown": 3664,
      "ĠBC": 3665,
      "ĠHo": 3666,
      "ĠPat": 3667,
      "rial": 3668,
      "Ġattention": 3669,
      "rael": 3670,
      "ĠFe": 3671,
      "Ġserious": 3672,
      "ĠAcad": 3673,
      "Ġparents": 3674,
      "ĠDel": 3675,
      "ĠInf": 3676,
      "Ġjud": 3677,
      "Ġrequest": 3678,
      "ĠCenter": 3679,
      "Ġimmediately": 3680,
      "Ġtar": 3681,
      "Ġmax": 3682,
      "Ġdom": 3683,
      "ĠRou": 3684,
      "ĠSecond": 3685,
      "ĠItalian": 3686,
      "quarters": 3687,
      "pool": 3688,
      "Ġwatch": 3689,
      "ste": 3690,
      "uter": 3691,
      "ows": 3692,
      "Ġstating": 3693,
      "Ġattend": 3694,
      "Ġdeg": 3695,
      "ĠOtt": 3696,
      "ortun": 3697,
      "berg": 3698,
      "Ġmetres": 3699,
      "Ġrespectively": 3700,
      "Ġhot": 3701,
      "oura": 3702,
      "iles": 3703,
      "ĠAlex": 3704,
      "Ġ180": 3705,
      "Ġ182": 3706,
      "ĠScot": 3707,
      "Ġminute": 3708,
      "Ġbooks": 3709,
      "orpedo": 3710,
      "Ġtraditional": 3711,
      "Ġremoved": 3712,
      "onna": 3713,
      "Ġnation": 3714,
      "osh": 3715,
      "Ġrate": 3716,
      "Ġoffered": 3717,
      "Ġmeans": 3718,
      "ĠIsrael": 3719,
      "Ġprevent": 3720,
      "Ġattempted": 3721,
      "nel": 3722,
      "well": 3723,
      "Ġchap": 3724,
      "ĠUN": 3725,
      "Ġkil": 3726,
      "Ġresulted": 3727,
      "Ġdirectly": 3728,
      "Ġextrem": 3729,
      "Ġsource": 3730,
      "rate": 3731,
      "ware": 3732,
      "Ġsaf": 3733,
      "Ġfell": 3734,
      "Ġbacter": 3735,
      "Ġdepend": 3736,
      "Ġextended": 3737,
      "Ġdetail": 3738,
      "ĠMissouri": 3739,
      "Ġaudience": 3740,
      "Ġreduced": 3741,
      "Ġindustry": 3742,
      "ĠCarey": 3743,
      "Ġpick": 3744,
      "ĠTheir": 3745,
      "ĠRad": 3746,
      "ĠJer": 3747,
      "Ġ1997": 3748,
      "ij": 3749,
      "rical": 3750,
      "Ġbene": 3751,
      "ims": 3752,
      "oses": 3753,
      "izing": 3754,
      "Ġenergy": 3755,
      "Ġpolic": 3756,
      "Ġbelow": 3757,
      "Ġconstit": 3758,
      "Ġconditions": 3759,
      "Ġcounter": 3760,
      "vement": 3761,
      "ita": 3762,
      "Ġchem": 3763,
      "Ġcandid": 3764,
      "urity": 3765,
      "Ġcondom": 3766,
      "Ġris": 3767,
      "Ġwrite": 3768,
      "Ġnearby": 3769,
      "Ġconfir": 3770,
      "ĠAfrican": 3771,
      "mas": 3772,
      "isher": 3773,
      "oured": 3774,
      "chan": 3775,
      "Ġneigh": 3776,
      "Ġcolon": 3777,
      "ĠAdm": 3778,
      "ĠSeries": 3779,
      "Ġvocal": 3780,
      "ĠSquadron": 3781,
      "bit": 3782,
      "right": 3783,
      "Ġtorpedo": 3784,
      "Ġhusband": 3785,
      "ĠFore": 3786,
      "Ġ1996": 3787,
      "Ġhighly": 3788,
      "Ġpresence": 3789,
      "Ġmarked": 3790,
      "ĠLouis": 3791,
      "iated": 3792,
      "ĠGames": 3793,
      "astic": 3794,
      "Ġclosed": 3795,
      "Ġ400": 3796,
      "ĠSea": 3797,
      "Ġtraffic": 3798,
      "Ġblood": 3799,
      "Ġtracks": 3800,
      "ona": 3801,
      "Ġsales": 3802,
      "Ġded": 3803,
      "Ġhar": 3804,
      "ĠTour": 3805,
      "ruct": 3806,
      "Ġuses": 3807,
      "rane": 3808,
      "Ġinches": 3809,
      "Ġcas": 3810,
      "Ġcho": 3811,
      "Ġunit": 3812,
      "ĠMcCain": 3813,
      "Ġseparate": 3814,
      "Ġsev": 3815,
      "Ġmatches": 3816,
      "Ġadminist": 3817,
      "like": 3818,
      "ils": 3819,
      "ĠCle": 3820,
      "ĠFur": 3821,
      "peror": 3822,
      "Ġ42": 3823,
      "Ġtext": 3824,
      "Ġproduce": 3825,
      "ĠJohnson": 3826,
      "Ġmiddle": 3827,
      "Ġfighting": 3828,
      "ĠNorthern": 3829,
      "ĠCouncil": 3830,
      "ĠLatin": 3831,
      "Ġcomposed": 3832,
      "Ġ49": 3833,
      "Ġweap": 3834,
      "ĠRev": 3835,
      "uated": 3836,
      "itting": 3837,
      "ingu": 3838,
      "Ġmorning": 3839,
      "Ġpresented": 3840,
      "Ġextra": 3841,
      "ĠParty": 3842,
      "ĠVietn": 3843,
      "Ġbad": 3844,
      "Ġpurs": 3845,
      "icip": 3846,
      "pted": 3847,
      "Ġ39": 3848,
      "ĠTur": 3849,
      "Ġlot": 3850,
      "ĠBen": 3851,
      "ĠDis": 3852,
      "ĠRose": 3853,
      "osen": 3854,
      "Ġplat": 3855,
      "Ġforms": 3856,
      "Ġsister": 3857,
      "ĠTrans": 3858,
      "Ġthings": 3859,
      "ĠVar": 3860,
      "ibr": 3861,
      "Ġschools": 3862,
      "Ġconducted": 3863,
      "nown": 3864,
      "Ġgreater": 3865,
      "ĠNic": 3866,
      "aven": 3867,
      "ĠOper": 3868,
      "Ġchief": 3869,
      "ĠThrough": 3870,
      "Ġprec": 3871,
      "Ġprep": 3872,
      "Ġcontinue": 3873,
      "Ġlands": 3874,
      "ĠForce": 3875,
      "Ġmarriage": 3876,
      "Ġissues": 3877,
      "Ġcovered": 3878,
      "ĠRegiment": 3879,
      "Ġaccepted": 3880,
      "joy": 3881,
      "icted": 3882,
      "ĠCr": 3883,
      "ĠHu": 3884,
      "Ġhero": 3885,
      "ulations": 3886,
      "Ġsecret": 3887,
      "ĠAnt": 3888,
      "Ġoperation": 3889,
      "Ġcommander": 3890,
      "Ġterritory": 3891,
      "wick": 3892,
      "Ġwant": 3893,
      "Ġaltern": 3894,
      "ĠJul": 3895,
      "aped": 3896,
      "Ġcentre": 3897,
      "Ġpowerful": 3898,
      "Ġcollection": 3899,
      "Ġlevels": 3900,
      "Ġsquare": 3901,
      "Ġrein": 3902,
      "Ġstra": 3903,
      "Ġheart": 3904,
      "cend": 3905,
      "ĠDist": 3906,
      "ĠRh": 3907,
      "Ġattended": 3908,
      "Ġrecomm": 3909,
      "Ġinstr": 3910,
      "Ġdepart": 3911,
      "Ġdeclared": 3912,
      "Ġfigure": 3913,
      "Ġsymb": 3914,
      "Ġdisease": 3915,
      "lo": 3916,
      "Ġanal": 3917,
      "ĠLiber": 3918,
      "Ġvia": 3919,
      "Ġleader": 3920,
      "ĠOliv": 3921,
      "Ġbegins": 3922,
      "ĠDepartment": 3923,
      "cy": 3924,
      "Ġwalls": 3925,
      "iled": 3926,
      "ĠGro": 3927,
      "Ġcontrib": 3928,
      "Ġrecover": 3929,
      "Ġappearances": 3930,
      "ares": 3931,
      "gu": 3932,
      "Ġfiction": 3933,
      "ĠSur": 3934,
      "anded": 3935,
      "Ġwriters": 3936,
      "venue": 3937,
      "Ġsituation": 3938,
      "Ġwidely": 3939,
      "ĠCongress": 3940,
      "ding": 3941,
      "ĠCorps": 3942,
      "ĠWhe": 3943,
      "Ġscience": 3944,
      "Ġtypically": 3945,
      "ĠSeveral": 3946,
      "reed": 3947,
      "atre": 3948,
      "Ġbox": 3949,
      "Ġtower": 3950,
      "Ġhair": 3951,
      "ĠSo": 3952,
      "Ġgraph": 3953,
      "ĠJose": 3954,
      "Ġ44": 3955,
      "Ġ1992": 3956,
      "Ġgreatest": 3957,
      "che": 3958,
      "under": 3959,
      "Ġlif": 3960,
      "emic": 3961,
      "ĠGreek": 3962,
      "odia": 3963,
      "Ġcontest": 3964,
      "Ġdistance": 3965,
      "Ġstruck": 3966,
      "Ġveh": 3967,
      "ĠFederer": 3968,
      "ĠFootball": 3969,
      "me": 3970,
      "Ġir": 3971,
      "Ġseem": 3972,
      "Ġchampionship": 3973,
      "Ġ34": 3974,
      "ĠAnn": 3975,
      "Ġstarting": 3976,
      "ĠClub": 3977,
      "Ġviewers": 3978,
      "Ġfarm": 3979,
      "bridge": 3980,
      "Ġwolves": 3981,
      "Ġhun": 3982,
      "Ġreject": 3983,
      "ĠCard": 3984,
      "Ġ1993": 3985,
      "Ġblue": 3986,
      "Ġsinger": 3987,
      "Ġannual": 3988,
      "Ġkept": 3989,
      "ipped": 3990,
      "Ġi": 3991,
      "Ġess": 3992,
      "Ġathlet": 3993,
      "Ġhour": 3994,
      "ĠSov": 3995,
      "ummer": 3996,
      "Ġimpact": 3997,
      "Ġrevealed": 3998,
      "Ġhouses": 3999,
      "Ġresponsible": 4000,
      "cÃ©": 4001,
      "ses": 4002,
      "Ġtoday": 4003,
      "ĠSol": 4004,
      "ĠThree": 4005,
      "Ġacting": 4006,
      "Ġhistorical": 4007,
      "stitute": 4008,
      "Ġtrue": 4009,
      "Ġwords": 4010,
      "utions": 4011,
      "ĠHon": 4012,
      "aging": 4013,
      "ĠEmp": 4014,
      "Ġdism": 4015,
      "Ġquality": 4016,
      "Ġrights": 4017,
      "Ġeducation": 4018,
      "Ġwa": 4019,
      "Ġenjoy": 4020,
      "Ġfounded": 4021,
      "Ġinside": 4022,
      "ĠQueen": 4023,
      "Ġcontrast": 4024,
      "ĠAngeles": 4025,
      "AS": 4026,
      "BS": 4027,
      "cel": 4028,
      "da": 4029,
      "ech": 4030,
      "Ġtax": 4031,
      "Ġplant": 4032,
      "Ġmodel": 4033,
      "Ġcombat": 4034,
      "ĠRoute": 4035,
      "Ġactions": 4036,
      "Ġ1941": 4037,
      "Ġallowing": 4038,
      "Ġtransferred": 4039,
      "Ġsilver": 4040,
      "Ġconcluded": 4041,
      "ication": 4042,
      "sen": 4043,
      "Ġ-": 4044,
      "Ġrough": 4045,
      "enant": 4046,
      "Ġcorn": 4047,
      "Ġcrow": 4048,
      "ĠCam": 4049,
      "ĠKent": 4050,
      "Ġ2016": 4051,
      "Ġactually": 4052,
      "Ġfamil": 4053,
      "Ġcampus": 4054,
      "Ġcerem": 4055,
      "ship": 4056,
      "Ġdu": 4057,
      "ĠBet": 4058,
      "Ġunivers": 4059,
      "ĠChina": 4060,
      "Ġ41": 4061,
      "Ġspread": 4062,
      "Ġcalling": 4063,
      "Ġshowed": 4064,
      "Ġdistinct": 4065,
      "Ġarchae": 4066,
      "Ġencoun": 4067,
      "Ġactivity": 4068,
      "VD": 4069,
      "Ġrepe": 4070,
      "ĠManc": 4071,
      "ether": 4072,
      "Ġheight": 4073,
      "Ġang": 4074,
      "ĠLong": 4075,
      "iano": 4076,
      "Ġjournal": 4077,
      "oint": 4078,
      "Ġinterse": 4079,
      "Ġofficer": 4080,
      "Ġolder": 4081,
      "ĠAnderson": 4082,
      "ĠAcademy": 4083,
      "stein": 4084,
      "gian": 4085,
      "inus": 4086,
      "Ġspl": 4087,
      "Ġwear": 4088,
      "Ġmor": 4089,
      "ĠMos": 4090,
      "Ġscoring": 4091,
      "Ġstudies": 4092,
      "Ġperformances": 4093,
      "ĠBrad": 4094,
      "ylv": 4095
    },
    "merges": [
      [
        "Ġ",
        "t"
      ],
      [
        "h",
        "e"
      ],
      [
        "Ġ",
        "a"
      ],
      [
        "i",
        "n"
      ],
      [
        "Ġt",
        "he"
      ],
      [
        "e",
        "r"
      ],
      [
        "o",
        "n"
      ],
      [
        "Ġ",
        ","
      ],
      [
        "r",
        "e"
      ],
      [
        "Ġ",
        "s"
      ],
      [
        "e",
        "d"
      ],
      [
        "Ġ",
        "w"
      ],
      [
        "Ġ",
        "o"
      ],
      [
        "n",
        "d"
      ],
      [
        "Ġ",
        "."
      ],
      [
        "a",
        "t"
      ],
      [
        "o",
        "r"
      ],
      [
        "e",
        "n"
      ],
      [
        "i",
        "t"
      ],
      [
        "Ġ",
        "c"
      ],
      [
        "Ġ",
        "f"
      ],
      [
        "e",
        "s"
      ],
      [
        "i",
        "s"
      ],
      [
        "Ġ",
        "b"
      ],
      [
        "a",
        "r"
      ],
      [
        "Ġo",
        "f"
      ],
      [
        "Ġ",
        "in"
      ],
      [
        "a",
        "n"
      ],
      [
        "a",
        "l"
      ],
      [
        "in",
        "g"
      ],
      [
        "Ġ",
        "p"
      ],
      [
        "Ġa",
        "nd"
      ],
      [
        "a",
        "s"
      ],
      [
        "Ġt",
        "o"
      ],
      [
        "Ġ",
        "m"
      ],
      [
        "i",
        "c"
      ],
      [
        "r",
        "o"
      ],
      [
        "Ġ",
        "d"
      ],
      [
        "Ġ",
        "h"
      ],
      [
        "i",
        "on"
      ],
      [
        "l",
        "e"
      ],
      [
        "o",
        "u"
      ],
      [
        "Ġ",
        "T"
      ],
      [
        "Ġ",
        "re"
      ],
      [
        "Ġ",
        "\""
      ],
      [
        "en",
        "t"
      ],
      [
        "Ġt",
        "h"
      ],
      [
        "i",
        "l"
      ],
      [
        "Ġ",
        "S"
      ],
      [
        "Ġ",
        "A"
      ],
      [
        "Ġ",
        "1"
      ],
      [
        "s",
        "t"
      ],
      [
        "Ġ",
        "l"
      ],
      [
        "Ġ",
        "e"
      ],
      [
        "Ġ",
        "n"
      ],
      [
        "o",
        "m"
      ],
      [
        "e",
        "l"
      ],
      [
        "Ġ",
        "@"
      ],
      [
        "a",
        "m"
      ],
      [
        "Ġ",
        "C"
      ],
      [
        "u",
        "n"
      ],
      [
        "a",
        "d"
      ],
      [
        "Ġw",
        "as"
      ],
      [
        "c",
        "t"
      ],
      [
        "Ġ",
        "M"
      ],
      [
        "Ġ",
        "on"
      ],
      [
        "l",
        "y"
      ],
      [
        "ĠT",
        "he"
      ],
      [
        "Ġb",
        "e"
      ],
      [
        "u",
        "r"
      ],
      [
        "Ġ",
        "'"
      ],
      [
        "Ġ",
        "g"
      ],
      [
        "Ġ",
        "B"
      ],
      [
        "Ġ",
        "I"
      ],
      [
        "o",
        "l"
      ],
      [
        "i",
        "d"
      ],
      [
        "i",
        "m"
      ],
      [
        "i",
        "v"
      ],
      [
        "Ġf",
        "or"
      ],
      [
        "i",
        "r"
      ],
      [
        "-",
        "@"
      ],
      [
        "Ġ@",
        "-@"
      ],
      [
        "a",
        "c"
      ],
      [
        "o",
        "t"
      ],
      [
        "i",
        "g"
      ],
      [
        "e",
        "t"
      ],
      [
        "Ġa",
        "s"
      ],
      [
        "u",
        "t"
      ],
      [
        "u",
        "s"
      ],
      [
        "Ġ",
        "H"
      ],
      [
        "Ġ",
        "Ċ"
      ],
      [
        "o",
        "w"
      ],
      [
        "it",
        "h"
      ],
      [
        "Ġs",
        "t"
      ],
      [
        "a",
        "y"
      ],
      [
        "t",
        "er"
      ],
      [
        "Ġ",
        "he"
      ],
      [
        "v",
        "er"
      ],
      [
        "Ġth",
        "at"
      ],
      [
        "Ġ",
        "2"
      ],
      [
        "Ġw",
        "ith"
      ],
      [
        "at",
        "ion"
      ],
      [
        "c",
        "e"
      ],
      [
        "Ġ",
        "P"
      ],
      [
        "c",
        "h"
      ],
      [
        "Ġw",
        "h"
      ],
      [
        "Ġ",
        "D"
      ],
      [
        "Ġ",
        "is"
      ],
      [
        "r",
        "a"
      ],
      [
        "Ġb",
        "y"
      ],
      [
        "Ġ",
        "R"
      ],
      [
        "t",
        "h"
      ],
      [
        "u",
        "l"
      ],
      [
        "e",
        "m"
      ],
      [
        "Ġ",
        "W"
      ],
      [
        "Ġa",
        "l"
      ],
      [
        "Ġc",
        "on"
      ],
      [
        "Ġ",
        "F"
      ],
      [
        "er",
        "s"
      ],
      [
        "Ġa",
        "t"
      ],
      [
        "Ġ",
        ")"
      ],
      [
        "Ġ",
        "("
      ],
      [
        "Ġ",
        "N"
      ],
      [
        "Ġa",
        "n"
      ],
      [
        "Ġ",
        "G"
      ],
      [
        "Ġ",
        "it"
      ],
      [
        "o",
        "s"
      ],
      [
        "Ġ1",
        "9"
      ],
      [
        "Ġ",
        "L"
      ],
      [
        "he",
        "r"
      ],
      [
        "ro",
        "m"
      ],
      [
        "es",
        "t"
      ],
      [
        "u",
        "m"
      ],
      [
        "a",
        "nd"
      ],
      [
        "Ġ",
        "J"
      ],
      [
        "Ġh",
        "is"
      ],
      [
        "0",
        "0"
      ],
      [
        "Ġs",
        "e"
      ],
      [
        "un",
        "k"
      ],
      [
        "a",
        "g"
      ],
      [
        "a",
        "v"
      ],
      [
        "a",
        "in"
      ],
      [
        "Ġ",
        "<"
      ],
      [
        "Ġd",
        "e"
      ],
      [
        "r",
        "i"
      ],
      [
        "o",
        "d"
      ],
      [
        "Ġf",
        "rom"
      ],
      [
        "Ġ",
        "E"
      ],
      [
        "p",
        "e"
      ],
      [
        "is",
        "t"
      ],
      [
        "Ġc",
        "om"
      ],
      [
        "Ġ",
        "O"
      ],
      [
        "Ġp",
        "ro"
      ],
      [
        "Ġ",
        "v"
      ],
      [
        "l",
        "d"
      ],
      [
        "i",
        "f"
      ],
      [
        "re",
        "s"
      ],
      [
        "i",
        "es"
      ],
      [
        "il",
        "l"
      ],
      [
        "Ġs",
        "u"
      ],
      [
        "er",
        "e"
      ],
      [
        "Ġ",
        "r"
      ],
      [
        "e",
        "w"
      ],
      [
        "ĠI",
        "n"
      ],
      [
        "or",
        "t"
      ],
      [
        "o",
        "re"
      ],
      [
        "o",
        "p"
      ],
      [
        "ig",
        "h"
      ],
      [
        "at",
        "e"
      ],
      [
        "Ġw",
        "ere"
      ],
      [
        "al",
        "l"
      ],
      [
        "ic",
        "h"
      ],
      [
        "ar",
        "t"
      ],
      [
        "ar",
        "d"
      ],
      [
        "on",
        "g"
      ],
      [
        "b",
        "er"
      ],
      [
        "Ġo",
        "r"
      ],
      [
        "a",
        "k"
      ],
      [
        "an",
        "t"
      ],
      [
        "Ġe",
        "x"
      ],
      [
        "Ġc",
        "h"
      ],
      [
        "u",
        "d"
      ],
      [
        "g",
        "h"
      ],
      [
        "s",
        "e"
      ],
      [
        "it",
        "y"
      ],
      [
        "q",
        "u"
      ],
      [
        "at",
        "ed"
      ],
      [
        "Ġp",
        "l"
      ],
      [
        "Ġs",
        "h"
      ],
      [
        "o",
        "c"
      ],
      [
        "a",
        "b"
      ],
      [
        "es",
        "s"
      ],
      [
        "am",
        "e"
      ],
      [
        "iv",
        "e"
      ],
      [
        "ro",
        "u"
      ],
      [
        "Ġh",
        "ad"
      ],
      [
        "Ġa",
        "re"
      ],
      [
        "p",
        "t"
      ],
      [
        "p",
        "p"
      ],
      [
        "Ġ",
        "U"
      ],
      [
        "re",
        "d"
      ],
      [
        "Ġ",
        "k"
      ],
      [
        "Ġwh",
        "ich"
      ],
      [
        "Ġ",
        "K"
      ],
      [
        "ac",
        "k"
      ],
      [
        "g",
        "e"
      ],
      [
        "Ġ",
        "â"
      ],
      [
        "Ġ",
        "le"
      ],
      [
        "i",
        "p"
      ],
      [
        "Ġn",
        "ot"
      ],
      [
        "Ġ",
        "y"
      ],
      [
        "al",
        "ly"
      ],
      [
        "i",
        "an"
      ],
      [
        "o",
        "v"
      ],
      [
        "ĠS",
        "t"
      ],
      [
        "as",
        "t"
      ],
      [
        "m",
        "ent"
      ],
      [
        "ou",
        "r"
      ],
      [
        "Ġâ",
        "Ģ"
      ],
      [
        "e",
        "ar"
      ],
      [
        "el",
        "l"
      ],
      [
        "r",
        "it"
      ],
      [
        "o",
        "st"
      ],
      [
        "i",
        "a"
      ],
      [
        "igh",
        "t"
      ],
      [
        "or",
        "d"
      ],
      [
        "Ġ",
        "u"
      ],
      [
        "in",
        "e"
      ],
      [
        "t",
        "her"
      ],
      [
        "av",
        "e"
      ],
      [
        "ar",
        "y"
      ],
      [
        "ou",
        "n"
      ],
      [
        "u",
        "st"
      ],
      [
        "ct",
        "ion"
      ],
      [
        "Ġ",
        "3"
      ],
      [
        "c",
        "l"
      ],
      [
        "t",
        "e"
      ],
      [
        "ir",
        "st"
      ],
      [
        "Ġ",
        "un"
      ],
      [
        "Ġb",
        "ut"
      ],
      [
        "ou",
        "s"
      ],
      [
        "a",
        "p"
      ],
      [
        "is",
        "h"
      ],
      [
        "ou",
        "ld"
      ],
      [
        "Ġ2",
        "00"
      ],
      [
        "c",
        "c"
      ],
      [
        "ĠC",
        "h"
      ],
      [
        "f",
        "ter"
      ],
      [
        "Ġcom",
        "p"
      ],
      [
        "i",
        "e"
      ],
      [
        "Ġw",
        "he"
      ],
      [
        "i",
        "al"
      ],
      [
        "Ġthe",
        "ir"
      ],
      [
        "Ġ",
        ";"
      ],
      [
        "r",
        "u"
      ],
      [
        "Ġf",
        "irst"
      ],
      [
        "s",
        "o"
      ],
      [
        "Ġcon",
        "t"
      ],
      [
        "Ġit",
        "s"
      ],
      [
        "u",
        "re"
      ],
      [
        "Ġa",
        "r"
      ],
      [
        "Ġ",
        "V"
      ],
      [
        "o",
        "k"
      ],
      [
        "id",
        "e"
      ],
      [
        "Ġhe",
        "r"
      ],
      [
        "ĠH",
        "e"
      ],
      [
        "o",
        "g"
      ],
      [
        "p",
        "er"
      ],
      [
        "Ġ",
        "us"
      ],
      [
        "w",
        "o"
      ],
      [
        "u",
        "e"
      ],
      [
        "Ġin",
        "t"
      ],
      [
        "ic",
        "al"
      ],
      [
        "f",
        "f"
      ],
      [
        "he",
        "d"
      ],
      [
        "ig",
        "n"
      ],
      [
        "u",
        "b"
      ],
      [
        "Ġc",
        "l"
      ],
      [
        "om",
        "e"
      ],
      [
        "ou",
        "t"
      ],
      [
        "Ġal",
        "so"
      ],
      [
        "Ġa",
        "b"
      ],
      [
        "Ġ2",
        "0"
      ],
      [
        "at",
        "er"
      ],
      [
        "r",
        "an"
      ],
      [
        "it",
        "ion"
      ],
      [
        "as",
        "s"
      ],
      [
        "Ġa",
        "d"
      ],
      [
        "i",
        "re"
      ],
      [
        "or",
        "k"
      ],
      [
        "m",
        "er"
      ],
      [
        "ow",
        "n"
      ],
      [
        "Ġh",
        "ave"
      ],
      [
        "Ġon",
        "e"
      ],
      [
        "Ġ1",
        "8"
      ],
      [
        "r",
        "y"
      ],
      [
        "im",
        "e"
      ],
      [
        "on",
        "d"
      ],
      [
        "Ġre",
        "c"
      ],
      [
        "Ġ",
        "4"
      ],
      [
        "Ġ",
        ":"
      ],
      [
        ".",
        "@"
      ],
      [
        "Ġ@",
        ".@"
      ],
      [
        "d",
        "u"
      ],
      [
        "Ġre",
        "s"
      ],
      [
        "ag",
        "e"
      ],
      [
        "Ġwh",
        "o"
      ],
      [
        "l",
        "ow"
      ],
      [
        "Ġ",
        "ro"
      ],
      [
        "ĠâĢ",
        "ĵ"
      ],
      [
        "re",
        "e"
      ],
      [
        "p",
        "l"
      ],
      [
        "ĠT",
        "h"
      ],
      [
        "or",
        "m"
      ],
      [
        "e",
        "ct"
      ],
      [
        "Ġ",
        "5"
      ],
      [
        "Ġp",
        "er"
      ],
      [
        "Ġbe",
        "en"
      ],
      [
        "Ġh",
        "as"
      ],
      [
        "Ġs",
        "c"
      ],
      [
        "Ġt",
        "wo"
      ],
      [
        "en",
        "ce"
      ],
      [
        "ou",
        "gh"
      ],
      [
        "Ġbe",
        "c"
      ],
      [
        "ur",
        "ing"
      ],
      [
        "i",
        "le"
      ],
      [
        "ul",
        "t"
      ],
      [
        "Ġd",
        "is"
      ],
      [
        "Ġth",
        "is"
      ],
      [
        "i",
        "z"
      ],
      [
        "Ġy",
        "ear"
      ],
      [
        "a",
        "ct"
      ],
      [
        "Ġp",
        "art"
      ],
      [
        "Ġt",
        "e"
      ],
      [
        "Ġthe",
        "y"
      ],
      [
        "Ġa",
        "g"
      ],
      [
        "el",
        "y"
      ],
      [
        "ation",
        "s"
      ],
      [
        "or",
        "y"
      ],
      [
        "Ġd",
        "es"
      ],
      [
        "Ġ",
        "j"
      ],
      [
        "ĠI",
        "t"
      ],
      [
        "ĠA",
        "l"
      ],
      [
        "Ġo",
        "ver"
      ],
      [
        ",",
        "@"
      ],
      [
        "Ġ@",
        ",@"
      ],
      [
        "Ġs",
        "er"
      ],
      [
        "Ġm",
        "an"
      ],
      [
        "k",
        "e"
      ],
      [
        "l",
        "and"
      ],
      [
        "Ġpl",
        "ay"
      ],
      [
        "r",
        "ic"
      ],
      [
        "Ġo",
        "ther"
      ],
      [
        "Ġ",
        "en"
      ],
      [
        "cl",
        "ud"
      ],
      [
        "ad",
        "e"
      ],
      [
        "Ġa",
        "fter"
      ],
      [
        "Ġs",
        "p"
      ],
      [
        "a",
        "re"
      ],
      [
        "ou",
        "nd"
      ],
      [
        "oun",
        "t"
      ],
      [
        "Ġof",
        "f"
      ],
      [
        "Ġo",
        "ut"
      ],
      [
        "ac",
        "h"
      ],
      [
        "i",
        "b"
      ],
      [
        "Ġ",
        "im"
      ],
      [
        "ic",
        "e"
      ],
      [
        "ur",
        "n"
      ],
      [
        "o",
        "ver"
      ],
      [
        "w",
        "n"
      ],
      [
        "Ġ20",
        "1"
      ],
      [
        "ac",
        "e"
      ],
      [
        "Ġn",
        "e"
      ],
      [
        "ar",
        "k"
      ],
      [
        "s",
        "ion"
      ],
      [
        "Ġ",
        "Y"
      ],
      [
        "it",
        "e"
      ],
      [
        "an",
        "ce"
      ],
      [
        "Ġu",
        "p"
      ],
      [
        "Ġin",
        "clud"
      ],
      [
        "m",
        "an"
      ],
      [
        "Ġp",
        "re"
      ],
      [
        "Ġt",
        "ime"
      ],
      [
        "Ġw",
        "ould"
      ],
      [
        "c",
        "ed"
      ],
      [
        "rou",
        "gh"
      ],
      [
        "Ġint",
        "o"
      ],
      [
        "Ġs",
        "he"
      ],
      [
        "Ġs",
        "pe"
      ],
      [
        "w",
        "e"
      ],
      [
        "ĠO",
        "n"
      ],
      [
        "ĠU",
        "n"
      ],
      [
        "Ġh",
        "im"
      ],
      [
        "p",
        "h"
      ],
      [
        "nd",
        "er"
      ],
      [
        "Ġe",
        "v"
      ],
      [
        "w",
        "ard"
      ],
      [
        "ing",
        "s"
      ],
      [
        "in",
        "d"
      ],
      [
        "or",
        "s"
      ],
      [
        "t",
        "ed"
      ],
      [
        "v",
        "el"
      ],
      [
        "Ġ",
        "6"
      ],
      [
        "Ġm",
        "ore"
      ],
      [
        "Ġat",
        "t"
      ],
      [
        "o",
        "in"
      ],
      [
        "Ġw",
        "e"
      ],
      [
        "il",
        "d"
      ],
      [
        "on",
        "e"
      ],
      [
        "p",
        "ort"
      ],
      [
        "at",
        "es"
      ],
      [
        "Ġal",
        "l"
      ],
      [
        "it",
        "ed"
      ],
      [
        "as",
        "ed"
      ],
      [
        "Ġcom",
        "m"
      ],
      [
        "i",
        "ed"
      ],
      [
        "l",
        "es"
      ],
      [
        "re",
        "n"
      ],
      [
        "an",
        "g"
      ],
      [
        "os",
        "e"
      ],
      [
        "c",
        "es"
      ],
      [
        "am",
        "p"
      ],
      [
        "rou",
        "nd"
      ],
      [
        "Ġin",
        "ter"
      ],
      [
        "t",
        "s"
      ],
      [
        "as",
        "e"
      ],
      [
        "ri",
        "b"
      ],
      [
        "en",
        "s"
      ],
      [
        "ent",
        "s"
      ],
      [
        "o",
        "od"
      ],
      [
        "ĠS",
        "e"
      ],
      [
        "ab",
        "le"
      ],
      [
        "Ġ",
        "7"
      ],
      [
        "as",
        "on"
      ],
      [
        "res",
        "s"
      ],
      [
        "o",
        "y"
      ],
      [
        "Ġwhe",
        "n"
      ],
      [
        "v",
        "e"
      ],
      [
        "ion",
        "s"
      ],
      [
        "Ġf",
        "e"
      ],
      [
        "ol",
        "d"
      ],
      [
        "Ġw",
        "ork"
      ],
      [
        "f",
        "er"
      ],
      [
        "Ġbe",
        "t"
      ],
      [
        "ĠR",
        "e"
      ],
      [
        "a",
        "il"
      ],
      [
        "Ġn",
        "ew"
      ],
      [
        "i",
        "ous"
      ],
      [
        "at",
        "t"
      ],
      [
        "er",
        "ed"
      ],
      [
        "Ġthe",
        "m"
      ],
      [
        "Ġc",
        "ent"
      ],
      [
        "ub",
        "l"
      ],
      [
        "Ġ",
        "8"
      ],
      [
        "il",
        "m"
      ],
      [
        "re",
        "at"
      ],
      [
        "g",
        "an"
      ],
      [
        "a",
        "us"
      ],
      [
        "em",
        "ber"
      ],
      [
        "ic",
        "k"
      ],
      [
        "al",
        "s"
      ],
      [
        "Ġre",
        "m"
      ],
      [
        "Ġon",
        "ly"
      ],
      [
        "Ġse",
        "c"
      ],
      [
        "Ġ",
        "9"
      ],
      [
        "i",
        "x"
      ],
      [
        "v",
        "ed"
      ],
      [
        "ak",
        "e"
      ],
      [
        "f",
        "t"
      ],
      [
        "Ġg",
        "ame"
      ],
      [
        "ĠA",
        "s"
      ],
      [
        "Ġm",
        "ost"
      ],
      [
        "a",
        "w"
      ],
      [
        "Ġk",
        "n"
      ],
      [
        "Ġe",
        "ar"
      ],
      [
        "Ġd",
        "uring"
      ],
      [
        "Ġc",
        "an"
      ],
      [
        "Ġm",
        "e"
      ],
      [
        "f",
        "orm"
      ],
      [
        "ĠA",
        "n"
      ],
      [
        "we",
        "en"
      ],
      [
        "Ġcon",
        "s"
      ],
      [
        "ot",
        "h"
      ],
      [
        "ct",
        "ed"
      ],
      [
        "Ġth",
        "an"
      ],
      [
        "ĠM",
        "ar"
      ],
      [
        "ol",
        "low"
      ],
      [
        "or",
        "th"
      ],
      [
        "at",
        "h"
      ],
      [
        "on",
        "s"
      ],
      [
        "w",
        "ay"
      ],
      [
        "Ġs",
        "ong"
      ],
      [
        "Ġab",
        "out"
      ],
      [
        "Ġf",
        "in"
      ],
      [
        "Ġth",
        "ree"
      ],
      [
        "h",
        "ip"
      ],
      [
        "Ġt",
        "r"
      ],
      [
        "ĠN",
        "ew"
      ],
      [
        "Ġbet",
        "ween"
      ],
      [
        "ĠD",
        "e"
      ],
      [
        "Ġpro",
        "du"
      ],
      [
        "Ġl",
        "ater"
      ],
      [
        "Ġag",
        "ain"
      ],
      [
        "or",
        "n"
      ],
      [
        "ic",
        "t"
      ],
      [
        "Ġf",
        "ilm"
      ],
      [
        "Ġch",
        "ar"
      ],
      [
        "u",
        "g"
      ],
      [
        "f",
        "ore"
      ],
      [
        "ation",
        "al"
      ],
      [
        "i",
        "ew"
      ],
      [
        "Ġth",
        "rough"
      ],
      [
        "ter",
        "n"
      ],
      [
        "Ġf",
        "l"
      ],
      [
        "Ġre",
        "l"
      ],
      [
        "ĠA",
        "r"
      ],
      [
        "o",
        "ok"
      ],
      [
        "Ġre",
        "t"
      ],
      [
        "Ġb",
        "u"
      ],
      [
        "ou",
        "th"
      ],
      [
        "Ġ",
        "00"
      ],
      [
        "Ġu",
        "nder"
      ],
      [
        "Ġc",
        "ol"
      ],
      [
        "Ġ19",
        "9"
      ],
      [
        "r",
        "on"
      ],
      [
        "Ġ",
        "qu"
      ],
      [
        "Ġn",
        "um"
      ],
      [
        "Ġp",
        "os"
      ],
      [
        "Ġ",
        "ra"
      ],
      [
        "o",
        "b"
      ],
      [
        "an",
        "s"
      ],
      [
        "Ġ",
        "ver"
      ],
      [
        "c",
        "k"
      ],
      [
        "Ġe",
        "nd"
      ],
      [
        "ul",
        "ar"
      ],
      [
        "Ġse",
        "ason"
      ],
      [
        "Ġs",
        "o"
      ],
      [
        "Ġa",
        "p"
      ],
      [
        "Ġw",
        "rit"
      ],
      [
        "Ġg",
        "en"
      ],
      [
        "or",
        "ld"
      ],
      [
        "Ġwh",
        "ile"
      ],
      [
        "Ġrec",
        "ord"
      ],
      [
        "Ġas",
        "s"
      ],
      [
        "is",
        "ion"
      ],
      [
        "Ġre",
        "le"
      ],
      [
        "Ġm",
        "ade"
      ],
      [
        "e",
        "y"
      ],
      [
        "Ġp",
        "e"
      ],
      [
        "Ġwhe",
        "re"
      ],
      [
        "ĠE",
        "n"
      ],
      [
        "oc",
        "k"
      ],
      [
        "ĠA",
        "mer"
      ],
      [
        "Ġsu",
        "ch"
      ],
      [
        "Ġspe",
        "c"
      ],
      [
        "is",
        "hed"
      ],
      [
        "ĠAmer",
        "ic"
      ],
      [
        "Ġa",
        "pp"
      ],
      [
        "Ġa",
        "c"
      ],
      [
        "Ġin",
        "c"
      ],
      [
        "o",
        "h"
      ],
      [
        "Ġsu",
        "b"
      ],
      [
        "Ġfor",
        "m"
      ],
      [
        "Ġre",
        "g"
      ],
      [
        "e",
        "ver"
      ],
      [
        "at",
        "ing"
      ],
      [
        "iv",
        "ed"
      ],
      [
        "r",
        "al"
      ],
      [
        "ĠC",
        "om"
      ],
      [
        "Ġa",
        "ct"
      ],
      [
        "he",
        "s"
      ],
      [
        "Ġe",
        "p"
      ],
      [
        "Ġl",
        "ar"
      ],
      [
        "Ġa",
        "cc"
      ],
      [
        "Ġs",
        "ome"
      ],
      [
        "Ġf",
        "ollow"
      ],
      [
        "Ġ",
        "/"
      ],
      [
        "t",
        "on"
      ],
      [
        "Ġd",
        "ay"
      ],
      [
        "am",
        "es"
      ],
      [
        "Ġc",
        "all"
      ],
      [
        "Ġm",
        "ov"
      ],
      [
        "Ġa",
        "m"
      ],
      [
        "he",
        "n"
      ],
      [
        "o",
        "ol"
      ],
      [
        "Ġf",
        "our"
      ],
      [
        "Ġ00",
        "0"
      ],
      [
        "Ġus",
        "ed"
      ],
      [
        "a",
        "id"
      ],
      [
        "Ġe",
        "le"
      ],
      [
        "ro",
        "s"
      ],
      [
        "if",
        "ic"
      ],
      [
        "Ġde",
        "f"
      ],
      [
        "i",
        "ke"
      ],
      [
        "Ġm",
        "us"
      ],
      [
        "ar",
        "s"
      ],
      [
        "b",
        "um"
      ],
      [
        "Ġthe",
        "re"
      ],
      [
        "Ġp",
        "ubl"
      ],
      [
        "Ġbe",
        "fore"
      ],
      [
        "Ġt",
        "ra"
      ],
      [
        "ĠL",
        "e"
      ],
      [
        "ĠTh",
        "is"
      ],
      [
        "Ġsec",
        "ond"
      ],
      [
        "ĠA",
        "t"
      ],
      [
        "Ġn",
        "o"
      ],
      [
        "Ġyear",
        "s"
      ],
      [
        "ur",
        "y"
      ],
      [
        "Ġin",
        "d"
      ],
      [
        "ic",
        "s"
      ],
      [
        "l",
        "l"
      ],
      [
        "an",
        "k"
      ],
      [
        "t",
        "en"
      ],
      [
        "u",
        "al"
      ],
      [
        "s",
        "on"
      ],
      [
        "Ġap",
        "pe"
      ],
      [
        "i",
        "o"
      ],
      [
        "Ġd",
        "o"
      ],
      [
        "od",
        "e"
      ],
      [
        "il",
        "y"
      ],
      [
        "ow",
        "ever"
      ],
      [
        "id",
        "ent"
      ],
      [
        "e",
        "nd"
      ],
      [
        "Ġep",
        "is"
      ],
      [
        "i",
        "el"
      ],
      [
        "Ġ",
        "ent"
      ],
      [
        "Ġh",
        "igh"
      ],
      [
        "Ġs",
        "y"
      ],
      [
        "Ġb",
        "l"
      ],
      [
        "Ġp",
        "res"
      ],
      [
        "Ġsu",
        "pp"
      ],
      [
        "Ġbe",
        "ing"
      ],
      [
        "n",
        "ing"
      ],
      [
        "in",
        "es"
      ],
      [
        "Ġthe",
        "n"
      ],
      [
        "Ġ1",
        "0"
      ],
      [
        "Ġal",
        "bum"
      ],
      [
        "Ġs",
        "et"
      ],
      [
        "Ġs",
        "ur"
      ],
      [
        "ran",
        "s"
      ],
      [
        "Ġde",
        "c"
      ],
      [
        "at",
        "her"
      ],
      [
        "Ġf",
        "ound"
      ],
      [
        "r",
        "is"
      ],
      [
        "Ġm",
        "et"
      ],
      [
        "ot",
        "her"
      ],
      [
        "Ġl",
        "oc"
      ],
      [
        "Ġser",
        "ies"
      ],
      [
        "Ġ",
        "0"
      ],
      [
        "aus",
        "e"
      ],
      [
        "Ġbec",
        "ame"
      ],
      [
        "Ġse",
        "ver"
      ],
      [
        "al",
        "e"
      ],
      [
        "ain",
        "ed"
      ],
      [
        "iv",
        "er"
      ],
      [
        "en",
        "n"
      ],
      [
        "ol",
        "og"
      ],
      [
        "Ġnum",
        "ber"
      ],
      [
        "r",
        "am"
      ],
      [
        "a",
        "j"
      ],
      [
        "Ġw",
        "ell"
      ],
      [
        "j",
        "ect"
      ],
      [
        "e",
        "k"
      ],
      [
        "ĠS",
        "he"
      ],
      [
        "vel",
        "op"
      ],
      [
        "Ġsh",
        "ow"
      ],
      [
        "Ġ1",
        "7"
      ],
      [
        "Ġb",
        "oth"
      ],
      [
        "ig",
        "in"
      ],
      [
        "it",
        "ies"
      ],
      [
        "iv",
        "ers"
      ],
      [
        "Ġchar",
        "act"
      ],
      [
        "Ġad",
        "d"
      ],
      [
        "ĠB",
        "rit"
      ],
      [
        "e",
        "p"
      ],
      [
        "a",
        "ir"
      ],
      [
        "in",
        "ce"
      ],
      [
        "Ġin",
        "v"
      ],
      [
        "an",
        "y"
      ],
      [
        "Ġ1",
        "2"
      ],
      [
        "Ġre",
        "ce"
      ],
      [
        "Ġte",
        "am"
      ],
      [
        "if",
        "e"
      ],
      [
        "ĠA",
        "fter"
      ],
      [
        "Ġl",
        "ong"
      ],
      [
        "an",
        "e"
      ],
      [
        "Ġc",
        "o"
      ],
      [
        "Ġs",
        "ing"
      ],
      [
        "Ġagain",
        "st"
      ],
      [
        "i",
        "red"
      ],
      [
        "Ġinclud",
        "ing"
      ],
      [
        "is",
        "s"
      ],
      [
        "ĠJ",
        "oh"
      ],
      [
        "is",
        "ed"
      ],
      [
        "ĠS",
        "h"
      ],
      [
        "ĠEn",
        "g"
      ],
      [
        "ĠUn",
        "ited"
      ],
      [
        "ir",
        "d"
      ],
      [
        "em",
        "ent"
      ],
      [
        "Ġ19",
        "4"
      ],
      [
        "Ġb",
        "ack"
      ],
      [
        "Ġs",
        "m"
      ],
      [
        "Ġ19",
        "8"
      ],
      [
        "an",
        "n"
      ],
      [
        "i",
        "er"
      ],
      [
        "l",
        "ed"
      ],
      [
        "ĠâĢ",
        "Ķ"
      ],
      [
        "Ġm",
        "ain"
      ],
      [
        "Ġd",
        "ire"
      ],
      [
        "Ġp",
        "r"
      ],
      [
        "i",
        "k"
      ],
      [
        "Ġkn",
        "own"
      ],
      [
        "f",
        "ul"
      ],
      [
        "Ġman",
        "y"
      ],
      [
        "ow",
        "er"
      ],
      [
        "at",
        "ive"
      ],
      [
        "Ġst",
        "ud"
      ],
      [
        "Ġm",
        "on"
      ],
      [
        "Ġo",
        "p"
      ],
      [
        "Ġc",
        "re"
      ],
      [
        "Ġd",
        "id"
      ],
      [
        "ro",
        "w"
      ],
      [
        "Ġt",
        "rans"
      ],
      [
        "ro",
        "p"
      ],
      [
        "ĠJoh",
        "n"
      ],
      [
        "it",
        "s"
      ],
      [
        "ter",
        "s"
      ],
      [
        "Ġe",
        "m"
      ],
      [
        "ĠW",
        "h"
      ],
      [
        "o",
        "ber"
      ],
      [
        "el",
        "f"
      ],
      [
        "Ġde",
        "velop"
      ],
      [
        "u",
        "ally"
      ],
      [
        "er",
        "m"
      ],
      [
        "Ġc",
        "ould"
      ],
      [
        "u",
        "res"
      ],
      [
        "ĠS",
        "c"
      ],
      [
        "Ġo",
        "b"
      ],
      [
        "t",
        "ing"
      ],
      [
        "Ġ1",
        "6"
      ],
      [
        "in",
        "s"
      ],
      [
        "er",
        "al"
      ],
      [
        "v",
        "en"
      ],
      [
        "Ġepis",
        "ode"
      ],
      [
        "Ġ1",
        "5"
      ],
      [
        "a",
        "red"
      ],
      [
        "is",
        "e"
      ],
      [
        "iel",
        "d"
      ],
      [
        "a",
        "u"
      ],
      [
        "Ġex",
        "p"
      ],
      [
        "Ġd",
        "if"
      ],
      [
        "Ġdes",
        "c"
      ],
      [
        "Ġsh",
        "ip"
      ],
      [
        "Ġor",
        "igin"
      ],
      [
        "Ġm",
        "in"
      ],
      [
        "Ġp",
        "op"
      ],
      [
        "Ġg",
        "o"
      ],
      [
        "t",
        "il"
      ],
      [
        "Ġm",
        "ill"
      ],
      [
        "ros",
        "s"
      ],
      [
        "Ġim",
        "p"
      ],
      [
        "Ġle",
        "ad"
      ],
      [
        "te",
        "nd"
      ],
      [
        "th",
        "ough"
      ],
      [
        "Ġsever",
        "al"
      ],
      [
        "Ġb",
        "ro"
      ],
      [
        "Ġcall",
        "ed"
      ],
      [
        "Ġre",
        "p"
      ],
      [
        "Ġper",
        "form"
      ],
      [
        "a",
        "z"
      ],
      [
        "Ġ",
        "est"
      ],
      [
        "o",
        "ot"
      ],
      [
        "Ġs",
        "aid"
      ],
      [
        "u",
        "ch"
      ],
      [
        "iz",
        "ed"
      ],
      [
        "over",
        "n"
      ],
      [
        "ĠI",
        "nd"
      ],
      [
        "em",
        "b"
      ],
      [
        "Ġcomp",
        "le"
      ],
      [
        "er",
        "n"
      ],
      [
        "Ġcont",
        "in"
      ],
      [
        "i",
        "et"
      ],
      [
        "v",
        "iew"
      ],
      [
        "Ġp",
        "ol"
      ],
      [
        "le",
        "y"
      ],
      [
        "d",
        "er"
      ],
      [
        "ĠC",
        "ar"
      ],
      [
        "Ġc",
        "ar"
      ],
      [
        "Ġbe",
        "gan"
      ],
      [
        "Ġm",
        "ay"
      ],
      [
        "Ġ19",
        "6"
      ],
      [
        "i",
        "am"
      ],
      [
        "rou",
        "p"
      ],
      [
        "Ġp",
        "o"
      ],
      [
        "ĠAmeric",
        "an"
      ],
      [
        "Ġs",
        "ign"
      ],
      [
        "Ġan",
        "y"
      ],
      [
        "Ġd",
        "ist"
      ],
      [
        "Ġ1",
        "1"
      ],
      [
        "Ġb",
        "el"
      ],
      [
        "un",
        "e"
      ],
      [
        "Ġr",
        "un"
      ],
      [
        "ut",
        "e"
      ],
      [
        "m",
        "y"
      ],
      [
        "Ġn",
        "ear"
      ],
      [
        "Ġear",
        "ly"
      ],
      [
        "er",
        "t"
      ],
      [
        "Ġin",
        "st"
      ],
      [
        "Ġret",
        "urn"
      ],
      [
        "im",
        "es"
      ],
      [
        "Ġ19",
        "7"
      ],
      [
        "u",
        "ed"
      ],
      [
        "Ġdes",
        "ign"
      ],
      [
        "ak",
        "ing"
      ],
      [
        "ĠS",
        "p"
      ],
      [
        "Ġa",
        "ir"
      ],
      [
        "op",
        "le"
      ],
      [
        "a",
        "pt"
      ],
      [
        "Ġus",
        "e"
      ],
      [
        "Ġe",
        "ff"
      ],
      [
        "Ġd",
        "own"
      ],
      [
        "Ġdis",
        "c"
      ],
      [
        "Ġthe",
        "se"
      ],
      [
        "cc",
        "ess"
      ],
      [
        "Ġun",
        "til"
      ],
      [
        "Ġc",
        "rit"
      ],
      [
        "as",
        "h"
      ],
      [
        "ch",
        "ool"
      ],
      [
        "id",
        "ed"
      ],
      [
        "ment",
        "s"
      ],
      [
        "Ġin",
        "f"
      ],
      [
        "Ġcent",
        "ury"
      ],
      [
        "Ġw",
        "ar"
      ],
      [
        "Ġ",
        "Z"
      ],
      [
        "Ġo",
        "wn"
      ],
      [
        "Ġm",
        "at"
      ],
      [
        "Ġdesc",
        "rib"
      ],
      [
        "ĠA",
        "ust"
      ],
      [
        "ĠC",
        "on"
      ],
      [
        "t",
        "y"
      ],
      [
        "u",
        "nd"
      ],
      [
        "Ġal",
        "ong"
      ],
      [
        "Ġar",
        "t"
      ],
      [
        "Ġs",
        "im"
      ],
      [
        "ĠM",
        "ay"
      ],
      [
        "Ġfe",
        "at"
      ],
      [
        "a",
        "h"
      ],
      [
        "u",
        "p"
      ],
      [
        "ĠB",
        "e"
      ],
      [
        "is",
        "m"
      ],
      [
        "ce",
        "pt"
      ],
      [
        "g",
        "est"
      ],
      [
        "Ġf",
        "am"
      ],
      [
        "Ġth",
        "ough"
      ],
      [
        "i",
        "ally"
      ],
      [
        "v",
        "es"
      ],
      [
        "ul",
        "l"
      ],
      [
        "Ġs",
        "ame"
      ],
      [
        "ou",
        "se"
      ],
      [
        "Ġp",
        "h"
      ],
      [
        "Ġo",
        "cc"
      ],
      [
        "Ġrele",
        "ased"
      ],
      [
        "Ġmus",
        "ic"
      ],
      [
        "ĠW",
        "ar"
      ],
      [
        "Ġpro",
        "v"
      ],
      [
        "y",
        "s"
      ],
      [
        "u",
        "red"
      ],
      [
        "ĠI",
        "s"
      ],
      [
        "Ġst",
        "art"
      ],
      [
        "os",
        "ed"
      ],
      [
        "ĠBrit",
        "ish"
      ],
      [
        "Ġhis",
        "t"
      ],
      [
        "r",
        "ist"
      ],
      [
        "Ġ19",
        "5"
      ],
      [
        "Ġl",
        "and"
      ],
      [
        "i",
        "um"
      ],
      [
        "Ġop",
        "en"
      ],
      [
        "Ġm",
        "il"
      ],
      [
        "Ġcon",
        "st"
      ],
      [
        "x",
        "t"
      ],
      [
        "Ġde",
        "p"
      ],
      [
        "aj",
        "or"
      ],
      [
        "ĠThe",
        "y"
      ],
      [
        "ov",
        "e"
      ],
      [
        "Ġc",
        "ity"
      ],
      [
        "ist",
        "s"
      ],
      [
        "ib",
        "le"
      ],
      [
        "Ġpre",
        "v"
      ],
      [
        "ĠC",
        "l"
      ],
      [
        "Ġoff",
        "ic"
      ],
      [
        "Ġl",
        "ike"
      ],
      [
        "am",
        "ed"
      ],
      [
        "Ġp",
        "ass"
      ],
      [
        "Ġbec",
        "ause"
      ],
      [
        "Ġg",
        "roup"
      ],
      [
        "Ġmill",
        "ion"
      ],
      [
        "ĠB",
        "l"
      ],
      [
        "ut",
        "ion"
      ],
      [
        "Ġsu",
        "ccess"
      ],
      [
        "et",
        "s"
      ],
      [
        "Ġin",
        "s"
      ],
      [
        "Ġbu",
        "ild"
      ],
      [
        "Ġsm",
        "all"
      ],
      [
        "er",
        "man"
      ],
      [
        "Ġpe",
        "ople"
      ],
      [
        "Ġ1",
        "3"
      ],
      [
        "Ġm",
        "od"
      ],
      [
        "ĠA",
        "p"
      ],
      [
        "Ġp",
        "oin"
      ],
      [
        "Ġe",
        "ach"
      ],
      [
        "os",
        "s"
      ],
      [
        "Ġc",
        "ount"
      ],
      [
        "Ġg",
        "r"
      ],
      [
        "ers",
        "on"
      ],
      [
        "an",
        "ge"
      ],
      [
        "ur",
        "ch"
      ],
      [
        "is",
        "sion"
      ],
      [
        "ĠW",
        "orld"
      ],
      [
        "Ġw",
        "in"
      ],
      [
        "Ġo",
        "per"
      ],
      [
        "in",
        "ed"
      ],
      [
        "Ġb",
        "r"
      ],
      [
        "ĠT",
        "e"
      ],
      [
        "g",
        "er"
      ],
      [
        "ĠC",
        "ol"
      ],
      [
        "Ġk",
        "m"
      ],
      [
        "Ġcharact",
        "er"
      ],
      [
        "ĠU",
        "S"
      ],
      [
        "st",
        "em"
      ],
      [
        "ĠF",
        "or"
      ],
      [
        "Ġ19",
        "3"
      ],
      [
        "ĠA",
        "ug"
      ],
      [
        "Ġe",
        "ver"
      ],
      [
        "Ġa",
        "round"
      ],
      [
        "Ġare",
        "a"
      ],
      [
        "el",
        "s"
      ],
      [
        "Ġg",
        "overn"
      ],
      [
        "ĠAug",
        "ust"
      ],
      [
        "in",
        "k"
      ],
      [
        "Ã",
        "©"
      ],
      [
        "Ġ",
        "%"
      ],
      [
        "ĠA",
        "d"
      ],
      [
        "ction",
        "s"
      ],
      [
        "Ġcons",
        "id"
      ],
      [
        "Ġ",
        "$"
      ],
      [
        "Ġs",
        "ix"
      ],
      [
        "an",
        "c"
      ],
      [
        "ain",
        "s"
      ],
      [
        "u",
        "c"
      ],
      [
        "ĠSe",
        "pt"
      ],
      [
        "ĠSt",
        "ates"
      ],
      [
        "al",
        "es"
      ],
      [
        "ut",
        "h"
      ],
      [
        "ĠB",
        "r"
      ],
      [
        "Ġsupp",
        "ort"
      ],
      [
        "ĠH",
        "owever"
      ],
      [
        "g",
        "ed"
      ],
      [
        "Ġg",
        "u"
      ],
      [
        "ac",
        "ed"
      ],
      [
        "Ġ19",
        "1"
      ],
      [
        "Ġ",
        "ed"
      ],
      [
        "Ġto",
        "ok"
      ],
      [
        "Ġ1",
        "4"
      ],
      [
        "Ġfollow",
        "ing"
      ],
      [
        "ĠSept",
        "ember"
      ],
      [
        "in",
        "a"
      ],
      [
        "u",
        "es"
      ],
      [
        "Ġb",
        "att"
      ],
      [
        "b",
        "le"
      ],
      [
        "ĠAl",
        "l"
      ],
      [
        "ĠF",
        "ran"
      ],
      [
        "Ġres",
        "ult"
      ],
      [
        "c",
        "ess"
      ],
      [
        "Ġcl",
        "ass"
      ],
      [
        "Ġpart",
        "ic"
      ],
      [
        "Ġatt",
        "ack"
      ],
      [
        "i",
        "ent"
      ],
      [
        "Ġhe",
        "ad"
      ],
      [
        "Ġf",
        "ive"
      ],
      [
        "ĠJ",
        "u"
      ],
      [
        "Ġv",
        "ar"
      ],
      [
        "er",
        "v"
      ],
      [
        "Ġn",
        "orth"
      ],
      [
        "ĠG",
        "erman"
      ],
      [
        "ĠM",
        "c"
      ],
      [
        "Ġst",
        "ate"
      ],
      [
        "Ġlar",
        "ge"
      ],
      [
        "Ġw",
        "ill"
      ],
      [
        "Ġrece",
        "ived"
      ],
      [
        "av",
        "ing"
      ],
      [
        "Ġp",
        "rom"
      ],
      [
        "a",
        "x"
      ],
      [
        "Ġad",
        "v"
      ],
      [
        "ord",
        "ing"
      ],
      [
        "ro",
        "te"
      ],
      [
        "it",
        "t"
      ],
      [
        "ĠAust",
        "ral"
      ],
      [
        "pe",
        "ct"
      ],
      [
        "Ġpubl",
        "ic"
      ],
      [
        "iv",
        "ing"
      ],
      [
        "Ġan",
        "n"
      ],
      [
        "ĠP",
        "l"
      ],
      [
        "Ġre",
        "port"
      ],
      [
        "ant",
        "s"
      ],
      [
        "ward",
        "s"
      ],
      [
        "b",
        "all"
      ],
      [
        "g",
        "in"
      ],
      [
        "m",
        "ed"
      ],
      [
        "Ġm",
        "ajor"
      ],
      [
        "ĠO",
        "ct"
      ],
      [
        "il",
        "t"
      ],
      [
        "ore",
        "d"
      ],
      [
        "ĠJ",
        "une"
      ],
      [
        "ĠN",
        "ov"
      ],
      [
        "ĠJ",
        "an"
      ],
      [
        "n",
        "er"
      ],
      [
        "Ġo",
        "ld"
      ],
      [
        "iv",
        "es"
      ],
      [
        "at",
        "s"
      ],
      [
        "ra",
        "ct"
      ],
      [
        "ĠOct",
        "ober"
      ],
      [
        "e",
        "b"
      ],
      [
        "Ġwe",
        "ek"
      ],
      [
        "ur",
        "al"
      ],
      [
        "Ġc",
        "amp"
      ],
      [
        "Ġcont",
        "ro"
      ],
      [
        "at",
        "ely"
      ],
      [
        "Ġs",
        "ince"
      ],
      [
        "Ġ",
        "Q"
      ],
      [
        "il",
        "ity"
      ],
      [
        "Ġcon",
        "f"
      ],
      [
        "Ġhe",
        "l"
      ],
      [
        "ĠCh",
        "rist"
      ],
      [
        "r",
        "il"
      ],
      [
        "o",
        "x"
      ],
      [
        "Ġm",
        "ar"
      ],
      [
        "ĠCom",
        "m"
      ],
      [
        "om",
        "an"
      ],
      [
        "Ġre",
        "st"
      ],
      [
        "ĠN",
        "orth"
      ],
      [
        "ag",
        "ue"
      ],
      [
        "Ġb",
        "ook"
      ],
      [
        "Ġl",
        "ast"
      ],
      [
        "ĠD",
        "uring"
      ],
      [
        "Ġdif",
        "fer"
      ],
      [
        "Ġinc",
        "re"
      ],
      [
        "Ġm",
        "ed"
      ],
      [
        "u",
        "ary"
      ],
      [
        "ĠC",
        "an"
      ],
      [
        "y",
        "l"
      ],
      [
        "n",
        "e"
      ],
      [
        "Ġd",
        "et"
      ],
      [
        "Ġst",
        "r"
      ],
      [
        "ĠM",
        "e"
      ],
      [
        "Ġre",
        "f"
      ],
      [
        "ĠAp",
        "ril"
      ],
      [
        "Ġ",
        "]"
      ],
      [
        "Ġ",
        "["
      ],
      [
        "Ġappe",
        "ar"
      ],
      [
        "ĠY",
        "ork"
      ],
      [
        "Ġsy",
        "stem"
      ],
      [
        "om",
        "et"
      ],
      [
        "Ġ",
        "if"
      ],
      [
        "Ġw",
        "orld"
      ],
      [
        "Ġcon",
        "c"
      ],
      [
        "Ġle",
        "ft"
      ],
      [
        "Ġj",
        "ust"
      ],
      [
        "g",
        "et"
      ],
      [
        "l",
        "ish"
      ],
      [
        "ra",
        "ft"
      ],
      [
        "Ġdire",
        "ct"
      ],
      [
        "Ġl",
        "ine"
      ],
      [
        "Ġal",
        "low"
      ],
      [
        "ĠP",
        "h"
      ],
      [
        "a",
        "im"
      ],
      [
        "Ġwh",
        "at"
      ],
      [
        "Ġplay",
        "ed"
      ],
      [
        "Ġw",
        "rote"
      ],
      [
        "ian",
        "s"
      ],
      [
        "ivers",
        "ity"
      ],
      [
        "em",
        "pt"
      ],
      [
        "Ġt",
        "it"
      ],
      [
        "iv",
        "ely"
      ],
      [
        "Ġsing",
        "le"
      ],
      [
        "ĠS",
        "outh"
      ],
      [
        "ra",
        "ph"
      ],
      [
        "Ġsh",
        "ort"
      ],
      [
        ".",
        "."
      ],
      [
        "o",
        "ard"
      ],
      [
        "Ġd",
        "ue"
      ],
      [
        "Ġl",
        "ife"
      ],
      [
        "Ġs",
        "l"
      ],
      [
        "Ġex",
        "t"
      ],
      [
        "Ġt",
        "ri"
      ],
      [
        "ĠJu",
        "ly"
      ],
      [
        "id",
        "es"
      ],
      [
        "Ġdescrib",
        "ed"
      ],
      [
        "Ġs",
        "chool"
      ],
      [
        "Ġm",
        "uch"
      ],
      [
        "if",
        "ied"
      ],
      [
        "Ġ2",
        "5"
      ],
      [
        "ĠW",
        "hen"
      ],
      [
        "Ġn",
        "ame"
      ],
      [
        "Ġv",
        "is"
      ],
      [
        "Ġ3",
        "0"
      ],
      [
        "Ġfin",
        "al"
      ],
      [
        "Ġpos",
        "s"
      ],
      [
        "ĠNov",
        "ember"
      ],
      [
        "on",
        "t"
      ],
      [
        "ic",
        "ally"
      ],
      [
        "Ġspec",
        "ies"
      ],
      [
        "m",
        "ber"
      ],
      [
        "Ġs",
        "outh"
      ],
      [
        "ent",
        "ion"
      ],
      [
        "ĠB",
        "y"
      ],
      [
        "or",
        "p"
      ],
      [
        "Ġw",
        "on"
      ],
      [
        "ĠMar",
        "ch"
      ],
      [
        "Ġch",
        "ild"
      ],
      [
        "Ġh",
        "ome"
      ],
      [
        "Ġb",
        "ased"
      ],
      [
        "Ġde",
        "ath"
      ],
      [
        "Ġser",
        "v"
      ],
      [
        "ent",
        "ly"
      ],
      [
        "Ġan",
        "other"
      ],
      [
        "Ġex",
        "pl"
      ],
      [
        "he",
        "l"
      ],
      [
        "ĠE",
        "u"
      ],
      [
        "Ġ.",
        ".."
      ],
      [
        "en",
        "e"
      ],
      [
        "Ġst",
        "ru"
      ],
      [
        "Ġmon",
        "th"
      ],
      [
        "ĠJan",
        "uary"
      ],
      [
        "Ġpro",
        "g"
      ],
      [
        "ĠDe",
        "ce"
      ],
      [
        "ra",
        "nd"
      ],
      [
        "re",
        "t"
      ],
      [
        "il",
        "ar"
      ],
      [
        "Ġapp",
        "ro"
      ],
      [
        "Ġt",
        "y"
      ],
      [
        "Ġd",
        "am"
      ],
      [
        "ĠI",
        "I"
      ],
      [
        "iv",
        "ision"
      ],
      [
        "od",
        "y"
      ],
      [
        "o",
        "le"
      ],
      [
        "Ġc",
        "are"
      ],
      [
        "p",
        "le"
      ],
      [
        "Ġp",
        "ort"
      ],
      [
        "Ġn",
        "ow"
      ],
      [
        "Ġg",
        "un"
      ],
      [
        "ĠDece",
        "mber"
      ],
      [
        "c",
        "hed"
      ],
      [
        "Ġre",
        "view"
      ],
      [
        "Ġpl",
        "ace"
      ],
      [
        "on",
        "y"
      ],
      [
        "Ġst",
        "ory"
      ],
      [
        "Ġev",
        "en"
      ],
      [
        "Ġfam",
        "ily"
      ],
      [
        "Ġgen",
        "er"
      ],
      [
        "Ġb",
        "re"
      ],
      [
        "l",
        "ing"
      ],
      [
        "i",
        "ence"
      ],
      [
        "Ġbel",
        "ie"
      ],
      [
        "it",
        "al"
      ],
      [
        "om",
        "in"
      ],
      [
        "Ġn",
        "amed"
      ],
      [
        "n",
        "ess"
      ],
      [
        "he",
        "st"
      ],
      [
        "ĠH",
        "is"
      ],
      [
        "Ġp",
        "ower"
      ],
      [
        "av",
        "y"
      ],
      [
        "ag",
        "es"
      ],
      [
        "re",
        "w"
      ],
      [
        "ĠG",
        "e"
      ],
      [
        "Ġver",
        "y"
      ],
      [
        "Ġeff",
        "ect"
      ],
      [
        "Ġev",
        "ent"
      ],
      [
        "Ġh",
        "and"
      ],
      [
        "id",
        "ge"
      ],
      [
        "Ġw",
        "ay"
      ],
      [
        "Ġp",
        "ar"
      ],
      [
        "Ġatt",
        "empt"
      ],
      [
        "ĠG",
        "u"
      ],
      [
        "Ġk",
        "ill"
      ],
      [
        "Ġinclud",
        "ed"
      ],
      [
        "ĠK",
        "ing"
      ],
      [
        "Ġre",
        "qu"
      ],
      [
        "h",
        "am"
      ],
      [
        "Ġl",
        "ate"
      ],
      [
        "Ġgovern",
        "ment"
      ],
      [
        "Ġwith",
        "in"
      ],
      [
        "Ġt",
        "erm"
      ],
      [
        "at",
        "ure"
      ],
      [
        "Ġcol",
        "le"
      ],
      [
        "Ġto",
        "p"
      ],
      [
        "ĠH",
        "er"
      ],
      [
        "Ġth",
        "ose"
      ],
      [
        "Ġor",
        "gan"
      ],
      [
        "Ġd",
        "r"
      ],
      [
        "Ġver",
        "sion"
      ],
      [
        "Ġm",
        "ake"
      ],
      [
        "i",
        "od"
      ],
      [
        "Ġth",
        "ird"
      ],
      [
        "Ġtr",
        "ack"
      ],
      [
        "al",
        "f"
      ],
      [
        "ĠThe",
        "re"
      ],
      [
        "b",
        "y"
      ],
      [
        "ĠP",
        "ro"
      ],
      [
        "Ġle",
        "g"
      ],
      [
        "Ġh",
        "um"
      ],
      [
        "ide",
        "o"
      ],
      [
        "ĠP",
        "ar"
      ],
      [
        "ĠEu",
        "ro"
      ],
      [
        "Ġb",
        "est"
      ],
      [
        "ĠP",
        "r"
      ],
      [
        "ul",
        "ation"
      ],
      [
        "Ġm",
        "ark"
      ],
      [
        "Ġbu",
        "ilt"
      ],
      [
        "Ġest",
        "ab"
      ],
      [
        "Ġ19",
        "2"
      ],
      [
        "Ġ",
        "Â"
      ],
      [
        "pe",
        "nd"
      ],
      [
        "ĠB",
        "ro"
      ],
      [
        "Ġl",
        "ed"
      ],
      [
        "ac",
        "hed"
      ],
      [
        "Ġt",
        "urn"
      ],
      [
        "en",
        "g"
      ],
      [
        "Ġv",
        "iew"
      ],
      [
        "ition",
        "s"
      ],
      [
        "Ġre",
        "al"
      ],
      [
        "Ġ1",
        "00"
      ],
      [
        "Ġprev",
        "ious"
      ],
      [
        "Ġp",
        "erson"
      ],
      [
        "ĠH",
        "ar"
      ],
      [
        "ri",
        "end"
      ],
      [
        "Ġconst",
        "ru"
      ],
      [
        "Ġm",
        "en"
      ],
      [
        "Ġres",
        "p"
      ],
      [
        "Ġf",
        "ur"
      ],
      [
        "Ġst",
        "ill"
      ],
      [
        "Ġis",
        "s"
      ],
      [
        "ion",
        "al"
      ],
      [
        "le",
        "v"
      ],
      [
        "Ġorigin",
        "al"
      ],
      [
        "Ġd",
        "ra"
      ],
      [
        "Ġd",
        "em"
      ],
      [
        "Ġpro",
        "p"
      ],
      [
        "in",
        "c"
      ],
      [
        "Ġg",
        "ames"
      ],
      [
        "Ġs",
        "k"
      ],
      [
        "Ġex",
        "per"
      ],
      [
        "ĠA",
        "nd"
      ],
      [
        "iv",
        "en"
      ],
      [
        "en",
        "ces"
      ],
      [
        "ĠF",
        "l"
      ],
      [
        "m",
        "s"
      ],
      [
        "Ġb",
        "and"
      ],
      [
        "Ġg",
        "reat"
      ],
      [
        "ak",
        "es"
      ],
      [
        "Ġen",
        "g"
      ],
      [
        "Ġof",
        "ten"
      ],
      [
        "Ġhel",
        "p"
      ],
      [
        "Ġro",
        "le"
      ],
      [
        "ĠM",
        "in"
      ],
      [
        "ap",
        "an"
      ],
      [
        "oc",
        "i"
      ],
      [
        "ĠEuro",
        "pe"
      ],
      [
        "an",
        "ces"
      ],
      [
        "al",
        "k"
      ],
      [
        "Ġper",
        "iod"
      ],
      [
        "ĠN",
        "ational"
      ],
      [
        "ent",
        "ed"
      ],
      [
        "Ġl",
        "ist"
      ],
      [
        "ĠW",
        "ill"
      ],
      [
        "Ġal",
        "though"
      ],
      [
        "ĠJ",
        "apan"
      ],
      [
        "Ġr",
        "ight"
      ],
      [
        "en",
        "se"
      ],
      [
        "Ġre",
        "pl"
      ],
      [
        "m",
        "p"
      ],
      [
        "Ġo",
        "pp"
      ],
      [
        "or",
        "ies"
      ],
      [
        "olog",
        "y"
      ],
      [
        "Ġsim",
        "ilar"
      ],
      [
        "Ġne",
        "xt"
      ],
      [
        "Ġm",
        "emb"
      ],
      [
        "re",
        "en"
      ],
      [
        "Ġm",
        "ag"
      ],
      [
        "ĠE",
        "d"
      ],
      [
        "re",
        "ad"
      ],
      [
        "Ġs",
        "old"
      ],
      [
        "at",
        "ic"
      ],
      [
        "Ġfor",
        "mer"
      ],
      [
        "l",
        "s"
      ],
      [
        "ĠW",
        "e"
      ],
      [
        "Ġd",
        "est"
      ],
      [
        "Ġplay",
        "er"
      ],
      [
        "s",
        "elf"
      ],
      [
        "it",
        "ary"
      ],
      [
        "iv",
        "al"
      ],
      [
        "qu",
        "e"
      ],
      [
        "Ġsu",
        "g"
      ],
      [
        "Ġadd",
        "ition"
      ],
      [
        "e",
        "ad"
      ],
      [
        "Ġw",
        "ater"
      ],
      [
        "ĠC",
        "ity"
      ],
      [
        "Ġ201",
        "0"
      ],
      [
        "ain",
        "ing"
      ],
      [
        "ot",
        "t"
      ],
      [
        "Ġto",
        "wn"
      ],
      [
        "Ġc",
        "ame"
      ],
      [
        "l",
        "er"
      ],
      [
        "le",
        "t"
      ],
      [
        "Ġde",
        "b"
      ],
      [
        "Ġcomm",
        "and"
      ],
      [
        "et",
        "er"
      ],
      [
        "Ġ",
        "es"
      ],
      [
        "ren",
        "ch"
      ],
      [
        "Ġa",
        "uth"
      ],
      [
        "Ġc",
        "aus"
      ],
      [
        "Ġf",
        "ew"
      ],
      [
        "ĠW",
        "est"
      ],
      [
        "Ġc",
        "apt"
      ],
      [
        "Ġpro",
        "te"
      ],
      [
        "ak",
        "en"
      ],
      [
        "o",
        "ad"
      ],
      [
        "i",
        "or"
      ],
      [
        "a",
        "pp"
      ],
      [
        "Ġc",
        "our"
      ],
      [
        "ĠM",
        "ich"
      ],
      [
        "r",
        "ing"
      ],
      [
        "Ġin",
        "it"
      ],
      [
        "Ġst",
        "ar"
      ],
      [
        "el",
        "t"
      ],
      [
        "Ġconsid",
        "ered"
      ],
      [
        "Ġm",
        "id"
      ],
      [
        "Ġloc",
        "al"
      ],
      [
        "ri",
        "ed"
      ],
      [
        "s",
        "ide"
      ],
      [
        "Ġdiffer",
        "ent"
      ],
      [
        "re",
        "et"
      ],
      [
        "un",
        "g"
      ],
      [
        "Ġmov",
        "ed"
      ],
      [
        "Ġm",
        "y"
      ],
      [
        "ut",
        "ed"
      ],
      [
        "a",
        "i"
      ],
      [
        "tend",
        "ed"
      ],
      [
        "Ġc",
        "ur"
      ],
      [
        "g",
        "y"
      ],
      [
        "Ġh",
        "owever"
      ],
      [
        "b",
        "s"
      ],
      [
        "Ġs",
        "ent"
      ],
      [
        "Ġcomm",
        "on"
      ],
      [
        "Ġhe",
        "ld"
      ],
      [
        "Ġ200",
        "9"
      ],
      [
        "d",
        "om"
      ],
      [
        "Ġc",
        "ap"
      ],
      [
        "Ġman",
        "ag"
      ],
      [
        "Ġ2",
        "1"
      ],
      [
        "ĠR",
        "iver"
      ],
      [
        "Ġy",
        "ou"
      ],
      [
        "is",
        "ter"
      ],
      [
        "Ġv",
        "ideo"
      ],
      [
        "Ġcl",
        "aim"
      ],
      [
        "Ġam",
        "ong"
      ],
      [
        "ar",
        "n"
      ],
      [
        "ĠM",
        "an"
      ],
      [
        "c",
        "hes"
      ],
      [
        "Ġt",
        "w"
      ],
      [
        "ĠM",
        "us"
      ],
      [
        "Ġst",
        "and"
      ],
      [
        "Ġever",
        "y"
      ],
      [
        "Ġc",
        "over"
      ],
      [
        "Ġst",
        "orm"
      ],
      [
        "l",
        "u"
      ],
      [
        "Ġday",
        "s"
      ],
      [
        "ĠF",
        "rench"
      ],
      [
        "Ġs",
        "ay"
      ],
      [
        "s",
        "h"
      ],
      [
        "ĠEng",
        "land"
      ],
      [
        "Ġwith",
        "out"
      ],
      [
        "ĠOn",
        "e"
      ],
      [
        "ĠCan",
        "ad"
      ],
      [
        "es",
        "tern"
      ],
      [
        "Ġcontin",
        "ued"
      ],
      [
        "Ġsug",
        "gest"
      ],
      [
        "Ġ",
        "&"
      ],
      [
        "ri",
        "pt"
      ],
      [
        "en",
        "c"
      ],
      [
        "ar",
        "ch"
      ],
      [
        "Ġj",
        "oin"
      ],
      [
        "he",
        "m"
      ],
      [
        "Ġtr",
        "ad"
      ],
      [
        "Ġ200",
        "8"
      ],
      [
        "a",
        "e"
      ],
      [
        "ĠC",
        "ount"
      ],
      [
        "ĠG",
        "en"
      ],
      [
        "eb",
        "ru"
      ],
      [
        "p",
        "ar"
      ],
      [
        "Ġan",
        "t"
      ],
      [
        "as",
        "ter"
      ],
      [
        "Ġim",
        "port"
      ],
      [
        "rop",
        "ical"
      ],
      [
        "au",
        "gh"
      ],
      [
        "Ġs",
        "ide"
      ],
      [
        "ĠB",
        "att"
      ],
      [
        "p",
        "ite"
      ],
      [
        "ur",
        "s"
      ],
      [
        "Ġf",
        "re"
      ],
      [
        "Ġbec",
        "ome"
      ],
      [
        "Ġt",
        "ake"
      ],
      [
        "ĠF",
        "ebru"
      ],
      [
        "ĠFebru",
        "ary"
      ],
      [
        "Ġbe",
        "h"
      ],
      [
        "Ġh",
        "alf"
      ],
      [
        "itt",
        "le"
      ],
      [
        "Ġmemb",
        "ers"
      ],
      [
        "ĠW",
        "ith"
      ],
      [
        "Ġf",
        "ield"
      ],
      [
        "er",
        "ing"
      ],
      [
        "Ġwrit",
        "ten"
      ],
      [
        "b",
        "e"
      ],
      [
        "at",
        "or"
      ],
      [
        "iz",
        "e"
      ],
      [
        "ĠUn",
        "iversity"
      ],
      [
        "Ġa",
        "v"
      ],
      [
        "Ġf",
        "ind"
      ],
      [
        "Ġpol",
        "it"
      ],
      [
        "Ġb",
        "as"
      ],
      [
        "Ġto",
        "t"
      ],
      [
        "Ġpubl",
        "ished"
      ],
      [
        "ro",
        "du"
      ],
      [
        "Ġor",
        "der"
      ],
      [
        "us",
        "s"
      ],
      [
        "ĠO",
        "r"
      ],
      [
        "ard",
        "s"
      ],
      [
        "Ġ200",
        "7"
      ],
      [
        "Ġg",
        "ave"
      ],
      [
        "at",
        "ter"
      ],
      [
        "ĠAl",
        "though"
      ],
      [
        "Ġrele",
        "ase"
      ],
      [
        "Ġf",
        "ar"
      ],
      [
        "ĠSt",
        "ate"
      ],
      [
        "ris",
        "on"
      ],
      [
        "Ġpartic",
        "ular"
      ],
      [
        "Ġf",
        "oot"
      ],
      [
        "es",
        "e"
      ],
      [
        "Ġv",
        "ict"
      ],
      [
        "Ġc",
        "r"
      ],
      [
        "ĠA",
        "cc"
      ],
      [
        "Ġpro",
        "f"
      ],
      [
        "Ġd",
        "el"
      ],
      [
        "op",
        "s"
      ],
      [
        "ĠP",
        "ark"
      ],
      [
        "Ġfur",
        "ther"
      ],
      [
        "Ġrecord",
        "ed"
      ],
      [
        "c",
        "raft"
      ],
      [
        "ic",
        "es"
      ],
      [
        "ĠA",
        "m"
      ],
      [
        "Ġpl",
        "an"
      ],
      [
        "b",
        "r"
      ],
      [
        "Ġle",
        "vel"
      ],
      [
        "Ġy",
        "oun"
      ],
      [
        "ĠEng",
        "lish"
      ],
      [
        "Ġinv",
        "ol"
      ],
      [
        "Ġp",
        "ost"
      ],
      [
        "Ġh",
        "aving"
      ],
      [
        "Ġrep",
        "res"
      ],
      [
        "Ġe",
        "qu"
      ],
      [
        "Ġ2",
        "3"
      ],
      [
        "ĠGe",
        "or"
      ],
      [
        "lev",
        "ision"
      ],
      [
        "Ġn",
        "ov"
      ],
      [
        "Ġreturn",
        "ed"
      ],
      [
        "ot",
        "s"
      ],
      [
        "Ġ2",
        "4"
      ],
      [
        "Ġf",
        "ore"
      ],
      [
        "Ġstr",
        "ong"
      ],
      [
        "og",
        "raph"
      ],
      [
        "Ġne",
        "ver"
      ],
      [
        "Ġcomp",
        "any"
      ],
      [
        "Ġf",
        "ather"
      ],
      [
        "Ġpoin",
        "t"
      ],
      [
        "Ġt",
        "em"
      ],
      [
        "ĠN",
        "e"
      ],
      [
        "Ġship",
        "s"
      ],
      [
        "er",
        "y"
      ],
      [
        "at",
        "ch"
      ],
      [
        "ro",
        "y"
      ],
      [
        "Ġl",
        "ess"
      ],
      [
        "Ġcl",
        "ub"
      ],
      [
        "Ġhist",
        "ory"
      ],
      [
        "ĠD",
        "es"
      ],
      [
        "Ġch",
        "ang"
      ],
      [
        "ĠCh",
        "ar"
      ],
      [
        "Ġcomp",
        "et"
      ],
      [
        "Ġdef",
        "e"
      ],
      [
        "our",
        "s"
      ],
      [
        "ĠN",
        "o"
      ],
      [
        "Ġar",
        "r"
      ],
      [
        "Ġro",
        "ad"
      ],
      [
        "Ġw",
        "ind"
      ],
      [
        "le",
        "ar"
      ],
      [
        "y",
        "le"
      ],
      [
        "Ġprog",
        "ram"
      ],
      [
        "Ġcare",
        "er"
      ],
      [
        "o",
        "on"
      ],
      [
        "iet",
        "y"
      ],
      [
        "pp",
        "ed"
      ],
      [
        "Ġf",
        "riend"
      ],
      [
        "Ġe",
        "ight"
      ],
      [
        "ĠWh",
        "ile"
      ],
      [
        "ĠAcc",
        "ording"
      ],
      [
        "Ġ2",
        "2"
      ],
      [
        "Ġ19",
        "0"
      ],
      [
        "Ġl",
        "ow"
      ],
      [
        "it",
        "er"
      ],
      [
        "as",
        "tern"
      ],
      [
        "Ġf",
        "un"
      ],
      [
        "ren",
        "t"
      ],
      [
        "Ġre",
        "ad"
      ],
      [
        "Ġre",
        "fer"
      ],
      [
        "ĠAs",
        "s"
      ],
      [
        "Ġob",
        "s"
      ],
      [
        "Ġh",
        "ow"
      ],
      [
        "ĠC",
        "al"
      ],
      [
        "Ġt",
        "en"
      ],
      [
        "ĠWill",
        "iam"
      ],
      [
        "Ġpos",
        "ition"
      ],
      [
        "l",
        "ine"
      ],
      [
        "ĠD",
        "av"
      ],
      [
        "ant",
        "ed"
      ],
      [
        "on",
        "es"
      ],
      [
        "Ġinclud",
        "e"
      ],
      [
        "Ġbuild",
        "ing"
      ],
      [
        "Ġs",
        "ound"
      ],
      [
        "ĠB",
        "ar"
      ],
      [
        "Ġprodu",
        "ction"
      ],
      [
        "Ġs",
        "omet"
      ],
      [
        "ĠA",
        "b"
      ],
      [
        "Ġtot",
        "al"
      ],
      [
        "Ġs",
        "it"
      ],
      [
        "ch",
        "n"
      ],
      [
        "ĠD",
        "ivision"
      ],
      [
        "ĠE",
        "l"
      ],
      [
        "it",
        "ive"
      ],
      [
        "Ġauth",
        "or"
      ],
      [
        "ab",
        "ly"
      ],
      [
        "Ġprodu",
        "ced"
      ],
      [
        "Ġsong",
        "s"
      ],
      [
        "Ġinf",
        "lu"
      ],
      [
        "amp",
        "ions"
      ],
      [
        "Ġt",
        "er"
      ],
      [
        "Ġw",
        "est"
      ],
      [
        "Ġl",
        "ight"
      ],
      [
        "Ġn",
        "ort"
      ],
      [
        "ron",
        "t"
      ],
      [
        "Ġde",
        "cl"
      ],
      [
        "Ġst",
        "ated"
      ],
      [
        "Ġpro",
        "ject"
      ],
      [
        "ct",
        "or"
      ],
      [
        "Ġ200",
        "6"
      ],
      [
        "ail",
        "ed"
      ],
      [
        "Ġg",
        "iven"
      ],
      [
        "Ġreport",
        "ed"
      ],
      [
        "om",
        "en"
      ],
      [
        "Ġtit",
        "le"
      ],
      [
        "n",
        "ey"
      ],
      [
        "Ġ2",
        "6"
      ],
      [
        "Ġar",
        "ch"
      ],
      [
        "Ġre",
        "d"
      ],
      [
        "Ġe",
        "ast"
      ],
      [
        "Ġ201",
        "1"
      ],
      [
        "a",
        "ur"
      ],
      [
        "h",
        "ing"
      ],
      [
        "re",
        "m"
      ],
      [
        "Ġsh",
        "ould"
      ],
      [
        "in",
        "ing"
      ],
      [
        "Ġl",
        "im"
      ],
      [
        "are",
        "n"
      ],
      [
        "Ġl",
        "aw"
      ],
      [
        "Ġcomm",
        "un"
      ],
      [
        "Ġmil",
        "itary"
      ],
      [
        "ĠC",
        "ent"
      ],
      [
        "ie",
        "f"
      ],
      [
        "Ġ5",
        "0"
      ],
      [
        "ens",
        "ive"
      ],
      [
        "Ġa",
        "ff"
      ],
      [
        "Ġchild",
        "ren"
      ],
      [
        "ĠA",
        "ir"
      ],
      [
        "Ġl",
        "ost"
      ],
      [
        "n",
        "a"
      ],
      [
        "Ġg",
        "ood"
      ],
      [
        "os",
        "p"
      ],
      [
        "res",
        "sion"
      ],
      [
        "Ġcrit",
        "ic"
      ],
      [
        "Ġt",
        "imes"
      ],
      [
        "e",
        "c"
      ],
      [
        "Ġor",
        "d"
      ],
      [
        "se",
        "qu"
      ],
      [
        "Ġhist",
        "or"
      ],
      [
        "Ġ",
        "X"
      ],
      [
        "Ġh",
        "ouse"
      ],
      [
        "us",
        "ed"
      ],
      [
        "Ġcom",
        "b"
      ],
      [
        "Ġus",
        "ing"
      ],
      [
        "Ġm",
        "aking"
      ],
      [
        "is",
        "c"
      ],
      [
        "ĠA",
        "f"
      ],
      [
        "Ġs",
        "ol"
      ],
      [
        "g",
        "es"
      ],
      [
        "Ġl",
        "a"
      ],
      [
        "ĠJ",
        "ack"
      ],
      [
        "Ġne",
        "ed"
      ],
      [
        "Ġ",
        "ide"
      ],
      [
        "ur",
        "ric"
      ],
      [
        "Ġsu",
        "per"
      ],
      [
        "Ġf",
        "act"
      ],
      [
        "Ġ2",
        "8"
      ],
      [
        "Ġw",
        "ent"
      ],
      [
        "Ġinter",
        "est"
      ],
      [
        "ĠThe",
        "se"
      ],
      [
        "Ġf",
        "em"
      ],
      [
        "pe",
        "c"
      ],
      [
        "ric",
        "k"
      ],
      [
        "Ġ201",
        "2"
      ],
      [
        "Ġcount",
        "ry"
      ],
      [
        "a",
        "f"
      ],
      [
        "Ġad",
        "m"
      ],
      [
        "Ġhim",
        "self"
      ],
      [
        "a",
        "pe"
      ],
      [
        "Ġf",
        "ire"
      ],
      [
        "Ġh",
        "ig"
      ],
      [
        "Ġp",
        "ress"
      ],
      [
        "Ġac",
        "ross"
      ],
      [
        "ĠT",
        "r"
      ],
      [
        "ĠLe",
        "ague"
      ],
      [
        "Ġdevelop",
        "ed"
      ],
      [
        "a",
        "ign"
      ],
      [
        "ou",
        "ther"
      ],
      [
        "Ġe",
        "l"
      ],
      [
        "Ġr",
        "ad"
      ],
      [
        "il",
        "le"
      ],
      [
        "pl",
        "ay"
      ],
      [
        "it",
        "her"
      ],
      [
        "Ġch",
        "art"
      ],
      [
        "r",
        "ation"
      ],
      [
        "Ġb",
        "ody"
      ],
      [
        "Ġd",
        "ied"
      ],
      [
        "Ġ2",
        "7"
      ],
      [
        "Ġp",
        "at"
      ],
      [
        "ĠL",
        "ond"
      ],
      [
        "Ġb",
        "us"
      ],
      [
        "Ġint",
        "rodu"
      ],
      [
        "ĠS",
        "u"
      ],
      [
        "Ġs",
        "on"
      ],
      [
        "ĠS",
        "w"
      ],
      [
        "ac",
        "es"
      ],
      [
        "her",
        "n"
      ],
      [
        "Ġann",
        "oun"
      ],
      [
        "d",
        "en"
      ],
      [
        "am",
        "ent"
      ],
      [
        "outher",
        "n"
      ],
      [
        "ĠLond",
        "on"
      ],
      [
        "ĠCom",
        "p"
      ],
      [
        "Ġsign",
        "ific"
      ],
      [
        "Ġmat",
        "ch"
      ],
      [
        "in",
        "ess"
      ],
      [
        "Ġcon",
        "v"
      ],
      [
        "Ġst",
        "at"
      ],
      [
        "Ġf",
        "elt"
      ],
      [
        "ĠE",
        "x"
      ],
      [
        "Ġnot",
        "ed"
      ],
      [
        "y",
        "n"
      ],
      [
        "ol",
        "l"
      ],
      [
        "Ġd",
        "iv"
      ],
      [
        "id",
        "ence"
      ],
      [
        "Ġdevelop",
        "ment"
      ],
      [
        "ut",
        "es"
      ],
      [
        "Ġk",
        "e"
      ],
      [
        "Ġa",
        "ge"
      ],
      [
        "Ġprodu",
        "c"
      ],
      [
        "Ġte",
        "levision"
      ],
      [
        "ĠAr",
        "my"
      ],
      [
        "or",
        "se"
      ],
      [
        "ĠMc",
        "C"
      ],
      [
        "Ġcontro",
        "l"
      ],
      [
        "f",
        "ic"
      ],
      [
        "Ġs",
        "oc"
      ],
      [
        "Ġm",
        "m"
      ],
      [
        "Ġa",
        "way"
      ],
      [
        "Ġpop",
        "ular"
      ],
      [
        "ĠGen",
        "eral"
      ],
      [
        "Ġan",
        "im"
      ],
      [
        "Ġfe",
        "et"
      ],
      [
        "l",
        "ished"
      ],
      [
        "a",
        "ul"
      ],
      [
        "Ġdest",
        "roy"
      ],
      [
        "Ġg",
        "round"
      ],
      [
        "im",
        "ent"
      ],
      [
        "ir",
        "c"
      ],
      [
        "in",
        "ation"
      ],
      [
        "Ġ18",
        "9"
      ],
      [
        "Ġdisc",
        "over"
      ],
      [
        "ubl",
        "ic"
      ],
      [
        "Ġinter",
        "n"
      ],
      [
        "ain",
        "t"
      ],
      [
        "Ġ201",
        "3"
      ],
      [
        "Ġse",
        "en"
      ],
      [
        "Ġwrit",
        "ing"
      ],
      [
        "ĠC",
        "o"
      ],
      [
        "ĠR",
        "oy"
      ],
      [
        "f",
        "ord"
      ],
      [
        "Ġb",
        "o"
      ],
      [
        "om",
        "b"
      ],
      [
        "Ġpres",
        "ent"
      ],
      [
        "ĠS",
        "m"
      ],
      [
        "Ġre",
        "ached"
      ],
      [
        "ag",
        "ed"
      ],
      [
        "Ġsu",
        "ff"
      ],
      [
        "Ġmonth",
        "s"
      ],
      [
        "ĠAmeric",
        "a"
      ],
      [
        "Ġestab",
        "lished"
      ],
      [
        "Ġg",
        "l"
      ],
      [
        "ord",
        "s"
      ],
      [
        "ĠAustral",
        "ia"
      ],
      [
        "Ġp",
        "ra"
      ],
      [
        "Ġbl",
        "ack"
      ],
      [
        "w",
        "ork"
      ],
      [
        "Ġc",
        "ast"
      ],
      [
        "Ġf",
        "t"
      ],
      [
        "ĠâĢ",
        "Ļ"
      ],
      [
        "Ġthrough",
        "out"
      ],
      [
        "pl",
        "oy"
      ],
      [
        "Ġpop",
        "ulation"
      ],
      [
        "Ġstru",
        "ct"
      ],
      [
        "Ġnov",
        "el"
      ],
      [
        "a",
        "ff"
      ],
      [
        "ri",
        "es"
      ],
      [
        "it",
        "ar"
      ],
      [
        "Ġl",
        "ittle"
      ],
      [
        "Ġv",
        "al"
      ],
      [
        "ĠAf",
        "ric"
      ],
      [
        "l",
        "ess"
      ],
      [
        "ĠM",
        "iss"
      ],
      [
        "is",
        "ing"
      ],
      [
        "st",
        "er"
      ],
      [
        "Ġwh",
        "ite"
      ],
      [
        "i",
        "ber"
      ],
      [
        "Ġa",
        "ward"
      ],
      [
        "re",
        "g"
      ],
      [
        "al",
        "y"
      ],
      [
        "Ġsuccess",
        "ful"
      ],
      [
        "ad",
        "es"
      ],
      [
        "Ġthough",
        "t"
      ],
      [
        "Ġstart",
        "ed"
      ],
      [
        "Ġs",
        "ite"
      ],
      [
        "ĠCount",
        "y"
      ],
      [
        "Ġs",
        "qu"
      ],
      [
        "Ġl",
        "ook"
      ],
      [
        "Ġrem",
        "ained"
      ],
      [
        "ist",
        "ed"
      ],
      [
        "r",
        "ay"
      ],
      [
        "Ġn",
        "ight"
      ],
      [
        "ĠSt",
        "e"
      ],
      [
        "Ġocc",
        "ur"
      ],
      [
        "Ġimport",
        "ant"
      ],
      [
        "as",
        "es"
      ],
      [
        "Ġcamp",
        "aign"
      ],
      [
        "ampions",
        "hip"
      ],
      [
        "it",
        "ted"
      ],
      [
        "am",
        "b"
      ],
      [
        "Ġse",
        "e"
      ],
      [
        "Ġg",
        "et"
      ],
      [
        "Ġfor",
        "ces"
      ],
      [
        "Ġmil",
        "es"
      ],
      [
        "Ġ",
        "er"
      ],
      [
        "le",
        "et"
      ],
      [
        "ĠP",
        "ol"
      ],
      [
        "Ġs",
        "w"
      ],
      [
        "Ġf",
        "ull"
      ],
      [
        "ing",
        "ton"
      ],
      [
        "urric",
        "ane"
      ],
      [
        "Ġn",
        "ational"
      ],
      [
        "Ġbe",
        "gin"
      ],
      [
        "Ġele",
        "ct"
      ],
      [
        "ĠE",
        "ar"
      ],
      [
        "Ġr",
        "ank"
      ],
      [
        "m",
        "ost"
      ],
      [
        "Ġse",
        "ven"
      ],
      [
        "Ġen",
        "c"
      ],
      [
        "Ġsignific",
        "ant"
      ],
      [
        "Ġte",
        "chn"
      ],
      [
        "way",
        "s"
      ],
      [
        "Ġto",
        "o"
      ],
      [
        "Ġare",
        "as"
      ],
      [
        "re",
        "am"
      ],
      [
        "as",
        "k"
      ],
      [
        "Ġst",
        "yle"
      ],
      [
        "ver",
        "s"
      ],
      [
        "Ġc",
        "ult"
      ],
      [
        "Ġoffic",
        "ial"
      ],
      [
        "ĠP",
        "ort"
      ],
      [
        "Ġty",
        "p"
      ],
      [
        "le",
        "ct"
      ],
      [
        "Ġrel",
        "ations"
      ],
      [
        "iv",
        "il"
      ],
      [
        "Ġar",
        "m"
      ],
      [
        "og",
        "n"
      ],
      [
        "Ġc",
        "ross"
      ],
      [
        "Ġa",
        "ud"
      ],
      [
        "ĠSt",
        "reet"
      ],
      [
        "Ġc",
        "or"
      ],
      [
        "Ġst",
        "e"
      ],
      [
        "Ġcon",
        "d"
      ],
      [
        "ĠChrist",
        "ian"
      ],
      [
        "Ġs",
        "um"
      ],
      [
        "Ġto",
        "ur"
      ],
      [
        "ĠM",
        "ed"
      ],
      [
        "Ġbatt",
        "le"
      ],
      [
        "Ġvar",
        "ious"
      ],
      [
        "d",
        "ay"
      ],
      [
        "ĠS",
        "im"
      ],
      [
        "Ġis",
        "land"
      ],
      [
        "ab",
        "or"
      ],
      [
        "Ġab",
        "le"
      ],
      [
        "Ġ",
        "ident"
      ],
      [
        "Ġprom",
        "ot"
      ],
      [
        "al",
        "ity"
      ],
      [
        "Ġn",
        "on"
      ],
      [
        "im",
        "ately"
      ],
      [
        "Ġmod",
        "ern"
      ],
      [
        "Ġl",
        "ik"
      ],
      [
        "Ġdo",
        "es"
      ],
      [
        "Ġcharact",
        "ers"
      ],
      [
        "ĠBl",
        "ack"
      ],
      [
        "y",
        "m"
      ],
      [
        "Ġear",
        "l"
      ],
      [
        "Ġcre",
        "ated"
      ],
      [
        "ĠJ",
        "ames"
      ],
      [
        "a",
        "el"
      ],
      [
        "u",
        "ck"
      ],
      [
        "Ġa",
        "ver"
      ],
      [
        "Ġm",
        "ount"
      ],
      [
        "Ġre",
        "v"
      ],
      [
        "it",
        "ing"
      ],
      [
        "al",
        "th"
      ],
      [
        "ĠH",
        "igh"
      ],
      [
        "Ġf",
        "av"
      ],
      [
        "amp",
        "le"
      ],
      [
        "Ġag",
        "re"
      ],
      [
        "Ġpro",
        "cess"
      ],
      [
        "Ġbro",
        "ad"
      ],
      [
        "ra",
        "p"
      ],
      [
        "Ġle",
        "t"
      ],
      [
        "Ġpolit",
        "ical"
      ],
      [
        "ree",
        "k"
      ],
      [
        "as",
        "ing"
      ],
      [
        "ĠG",
        "l"
      ],
      [
        "Ġpr",
        "im"
      ],
      [
        "Ġserv",
        "ice"
      ],
      [
        "g",
        "r"
      ],
      [
        "ol",
        "ution"
      ],
      [
        "ress",
        "ed"
      ],
      [
        "Ġent",
        "ire"
      ],
      [
        "Ġp",
        "ut"
      ],
      [
        "Ġ4",
        "0"
      ],
      [
        "in",
        "t"
      ],
      [
        "Ġg",
        "row"
      ],
      [
        "ĠP",
        "er"
      ],
      [
        "i",
        "ers"
      ],
      [
        "all",
        "s"
      ],
      [
        "ert",
        "ain"
      ],
      [
        "Ġconstru",
        "ction"
      ],
      [
        "Ġt",
        "ropical"
      ],
      [
        "ĠR",
        "oman"
      ],
      [
        "ĠR",
        "ober"
      ],
      [
        "ri",
        "e"
      ],
      [
        "Ġme",
        "et"
      ],
      [
        "c",
        "on"
      ],
      [
        "Ġl",
        "oss"
      ],
      [
        "Ġact",
        "iv"
      ],
      [
        "Ġc",
        "y"
      ],
      [
        "ough",
        "t"
      ],
      [
        "Ġfollow",
        "ed"
      ],
      [
        "Ġhum",
        "an"
      ],
      [
        "o",
        "pe"
      ],
      [
        "Ġspec",
        "ial"
      ],
      [
        "Ġimp",
        "ro"
      ],
      [
        "o",
        "ice"
      ],
      [
        "et",
        "t"
      ],
      [
        "Ġcaus",
        "ed"
      ],
      [
        "n",
        "ed"
      ],
      [
        "z",
        "e"
      ],
      [
        "Ġb",
        "ar"
      ],
      [
        "Ġkill",
        "ed"
      ],
      [
        "ĠR",
        "oad"
      ],
      [
        "Ġr",
        "ange"
      ],
      [
        "Ġperform",
        "ed"
      ],
      [
        "ĠJapan",
        "ese"
      ],
      [
        "ic",
        "ated"
      ],
      [
        "ĠRe",
        "p"
      ],
      [
        "Ġ2",
        "9"
      ],
      [
        "Ġp",
        "it"
      ],
      [
        "Ġp",
        "ri"
      ],
      [
        "Ġgun",
        "s"
      ],
      [
        "Ġh",
        "it"
      ],
      [
        "ĠPh",
        "il"
      ],
      [
        "ĠRe",
        "g"
      ],
      [
        "Ġdec",
        "ided"
      ],
      [
        "Ġre",
        "du"
      ],
      [
        "iz",
        "ation"
      ],
      [
        "ĠSe",
        "c"
      ],
      [
        "Ġt",
        "aken"
      ],
      [
        "Ġc",
        "ou"
      ],
      [
        "Ġp",
        "red"
      ],
      [
        "Ġfor",
        "ce"
      ],
      [
        "Ġb",
        "orn"
      ],
      [
        "Ġv",
        "ill"
      ],
      [
        "l",
        "ant"
      ],
      [
        "Ġloc",
        "ated"
      ],
      [
        "Ġc",
        "ell"
      ],
      [
        "al",
        "ion"
      ],
      [
        "Ġother",
        "s"
      ],
      [
        "Ġset",
        "t"
      ],
      [
        "Ġinst",
        "ead"
      ],
      [
        "Ġas",
        "k"
      ],
      [
        "ĠP",
        "res"
      ],
      [
        "Ġv",
        "ol"
      ],
      [
        "Ġplay",
        "ers"
      ],
      [
        "Ġform",
        "ed"
      ],
      [
        "an",
        "a"
      ],
      [
        "ĠM",
        "ad"
      ],
      [
        "Ġ200",
        "5"
      ],
      [
        "Ġair",
        "craft"
      ],
      [
        "Ġ",
        "round"
      ],
      [
        "Ã",
        "¡"
      ],
      [
        "ĠC",
        "ro"
      ],
      [
        "Ġbec",
        "om"
      ],
      [
        "Ġser",
        "ved"
      ],
      [
        "em",
        "y"
      ],
      [
        "Ġpro",
        "t"
      ],
      [
        "Ġ18",
        "6"
      ],
      [
        "Ġcomple",
        "ted"
      ],
      [
        "ĠAustral",
        "ian"
      ],
      [
        "um",
        "p"
      ],
      [
        "en",
        "ed"
      ],
      [
        "Ġto",
        "get"
      ],
      [
        "ric",
        "t"
      ],
      [
        "Ġtoget",
        "her"
      ],
      [
        "Ġt",
        "ro"
      ],
      [
        "Ġm",
        "ix"
      ],
      [
        "ĠRe",
        "c"
      ],
      [
        "ĠS",
        "ong"
      ],
      [
        "Ġperform",
        "ance"
      ],
      [
        "id",
        "s"
      ],
      [
        "Ġcre",
        "w"
      ],
      [
        "c",
        "ast"
      ],
      [
        "Ġc",
        "op"
      ],
      [
        "rough",
        "t"
      ],
      [
        "Ġm",
        "other"
      ],
      [
        "um",
        "ent"
      ],
      [
        "Ġadd",
        "ed"
      ],
      [
        "Ġannoun",
        "ced"
      ],
      [
        "ĠB",
        "ill"
      ],
      [
        "ĠR",
        "ich"
      ],
      [
        "b",
        "oard"
      ],
      [
        "enc",
        "y"
      ],
      [
        "Ġyoun",
        "g"
      ],
      [
        "ent",
        "h"
      ],
      [
        "Ġappe",
        "ared"
      ],
      [
        "e",
        "pend"
      ],
      [
        "re",
        "st"
      ],
      [
        "iv",
        "id"
      ],
      [
        "Ġb",
        "ase"
      ],
      [
        "Ġsur",
        "v"
      ],
      [
        "ĠT",
        "o"
      ],
      [
        "et",
        "h"
      ],
      [
        "Ġ",
        "!"
      ],
      [
        "ĠM",
        "on"
      ],
      [
        "ĠY",
        "ou"
      ],
      [
        "Ġon",
        "ce"
      ],
      [
        "ĠInd",
        "ian"
      ],
      [
        "ĠAn",
        "g"
      ],
      [
        "Ġgen",
        "eral"
      ],
      [
        "en",
        "ced"
      ],
      [
        "Ġh",
        "old"
      ],
      [
        "ĠB",
        "ut"
      ],
      [
        "al",
        "d"
      ],
      [
        "Ġar",
        "g"
      ],
      [
        "ĠGeor",
        "ge"
      ],
      [
        "f",
        "ield"
      ],
      [
        "Ġ18",
        "8"
      ],
      [
        "Ġro",
        "ck"
      ],
      [
        "fic",
        "ult"
      ],
      [
        "ĠS",
        "er"
      ],
      [
        "olog",
        "ical"
      ],
      [
        "Ġf",
        "ac"
      ],
      [
        "Ġev",
        "ents"
      ],
      [
        "ir",
        "on"
      ],
      [
        "ul",
        "ly"
      ],
      [
        "ell",
        "ing"
      ],
      [
        "Ġc",
        "ost"
      ],
      [
        "Ġkn",
        "ow"
      ],
      [
        "Ġc",
        "reat"
      ],
      [
        "az",
        "ine"
      ],
      [
        "p",
        "or"
      ],
      [
        "ur",
        "b"
      ],
      [
        "Ġle",
        "ast"
      ],
      [
        "Ġdif",
        "ficult"
      ],
      [
        "Ġtrad",
        "ition"
      ],
      [
        "ĠRoy",
        "al"
      ],
      [
        "ĠIs",
        "land"
      ],
      [
        "Ġc",
        "irc"
      ],
      [
        "Ġw",
        "omen"
      ],
      [
        "om",
        "m"
      ],
      [
        "Ġcom",
        "ment"
      ],
      [
        "Ġpro",
        "ble"
      ],
      [
        "Ġch",
        "urch"
      ],
      [
        "Ġrec",
        "ogn"
      ],
      [
        "Ġm",
        "ot"
      ],
      [
        "Ġm",
        "ember"
      ],
      [
        "Ġpe",
        "ak"
      ],
      [
        "Ġ200",
        "4"
      ],
      [
        "Ġco",
        "ast"
      ],
      [
        "g",
        "g"
      ],
      [
        "od",
        "es"
      ],
      [
        "Ġbeh",
        "ind"
      ],
      [
        "Ġl",
        "ive"
      ],
      [
        "Ġex",
        "ample"
      ],
      [
        "d",
        "le"
      ],
      [
        "Ġse",
        "par"
      ],
      [
        "ect",
        "ed"
      ],
      [
        "Ġup",
        "on"
      ],
      [
        "Ġevent",
        "ually"
      ],
      [
        "Ġrelations",
        "hip"
      ],
      [
        "he",
        "re"
      ],
      [
        "ĠK",
        "e"
      ],
      [
        "ĠCh",
        "urch"
      ],
      [
        "Ġf",
        "ront"
      ],
      [
        "Ġh",
        "y"
      ],
      [
        "Ġ200",
        "3"
      ],
      [
        "Ġtra",
        "vel"
      ],
      [
        "Ġ",
        "z"
      ],
      [
        "Ġb",
        "ird"
      ],
      [
        "ĠAt",
        "lant"
      ],
      [
        "s",
        "p"
      ],
      [
        "ch",
        "ie"
      ],
      [
        "Ġgener",
        "ally"
      ],
      [
        "Ġt",
        "re"
      ],
      [
        "ce",
        "ed"
      ],
      [
        "Ġass",
        "oci"
      ],
      [
        "Ġw",
        "ife"
      ],
      [
        "ĠS",
        "ome"
      ],
      [
        "Ġprof",
        "ess"
      ],
      [
        "Ġc",
        "oun"
      ],
      [
        "Ġb",
        "all"
      ],
      [
        "ĠTh",
        "om"
      ],
      [
        "Ġ18",
        "5"
      ],
      [
        "ĠI",
        "r"
      ],
      [
        "ĠE",
        "ast"
      ],
      [
        "Ġst",
        "ation"
      ],
      [
        "um",
        "b"
      ],
      [
        "ap",
        "er"
      ],
      [
        "Ġc",
        "ut"
      ],
      [
        "em",
        "s"
      ],
      [
        "Ġs",
        "aw"
      ],
      [
        "Ġh",
        "ost"
      ],
      [
        "Ġa",
        "ction"
      ],
      [
        "ig",
        "ade"
      ],
      [
        "Ġ3",
        "1"
      ],
      [
        "Ġqu",
        "est"
      ],
      [
        "Ġweek",
        "s"
      ],
      [
        "ĠO",
        "ld"
      ],
      [
        "ĠBro",
        "wn"
      ],
      [
        "y",
        "ing"
      ],
      [
        "id",
        "ing"
      ],
      [
        "x",
        "ic"
      ],
      [
        "ed",
        "er"
      ],
      [
        "ou",
        "l"
      ],
      [
        "ĠIn",
        "tern"
      ],
      [
        "ict",
        "ion"
      ],
      [
        "Ġt",
        "reat"
      ],
      [
        "Ġf",
        "if"
      ],
      [
        "Ġst",
        "ri"
      ],
      [
        "em",
        "ents"
      ],
      [
        "Ġac",
        "cept"
      ],
      [
        "Ġfeat",
        "ures"
      ],
      [
        "Ġm",
        "ater"
      ],
      [
        "Ġre",
        "b"
      ],
      [
        "Ġr",
        "ather"
      ],
      [
        "Ġcol",
        "l"
      ],
      [
        "at",
        "ors"
      ],
      [
        "Ġm",
        "ass"
      ],
      [
        "ent",
        "ial"
      ],
      [
        "ach",
        "ing"
      ],
      [
        "Ġwork",
        "ed"
      ],
      [
        "Ġal",
        "most"
      ],
      [
        "Ġ201",
        "4"
      ],
      [
        "Ġt",
        "est"
      ],
      [
        "Ġf",
        "ight"
      ],
      [
        "u",
        "le"
      ],
      [
        "Ġcl",
        "ose"
      ],
      [
        "eng",
        "th"
      ],
      [
        "Ġc",
        "e"
      ],
      [
        "Ġf",
        "ig"
      ],
      [
        "Ġind",
        "ivid"
      ],
      [
        "Ġm",
        "ult"
      ],
      [
        "Ġcrit",
        "ics"
      ],
      [
        "Ġprov",
        "ided"
      ],
      [
        "Ġplay",
        "ing"
      ],
      [
        "Ġopen",
        "ed"
      ],
      [
        "Ġla",
        "un"
      ],
      [
        "Ġm",
        "er"
      ],
      [
        "Ġcl",
        "os"
      ],
      [
        "c",
        "ent"
      ],
      [
        "o",
        "ff"
      ],
      [
        "Ġre",
        "se"
      ],
      [
        "Ġe",
        "ither"
      ],
      [
        "ac",
        "y"
      ],
      [
        "Ġpres",
        "ident"
      ],
      [
        "ar",
        "a"
      ],
      [
        "ĠM",
        "ag"
      ],
      [
        "Ġest",
        "im"
      ],
      [
        "Ġw",
        "id"
      ],
      [
        "Ġf",
        "oc"
      ],
      [
        "Ġre",
        "n"
      ],
      [
        "Ġorigin",
        "ally"
      ],
      [
        "ist",
        "ic"
      ],
      [
        "med",
        "i"
      ],
      [
        "ĠM",
        "or"
      ],
      [
        "ol",
        "f"
      ],
      [
        "Ġbelie",
        "ved"
      ],
      [
        "Ġb",
        "rought"
      ],
      [
        "ĠM",
        "ount"
      ],
      [
        "Ġhe",
        "avy"
      ],
      [
        "ĠP",
        "e"
      ],
      [
        "ĠR",
        "ed"
      ],
      [
        "Ġse",
        "qu"
      ],
      [
        "Ġv",
        "oc"
      ],
      [
        "ign",
        "ed"
      ],
      [
        "Ġlead",
        "ing"
      ],
      [
        "Ġde",
        "v"
      ],
      [
        "ort",
        "s"
      ],
      [
        "Ġapp",
        "oin"
      ],
      [
        "ĠM",
        "il"
      ],
      [
        "us",
        "h"
      ],
      [
        "Ġro",
        "ute"
      ],
      [
        "ĠS",
        "an"
      ],
      [
        "Ġreg",
        "ion"
      ],
      [
        "Ġin",
        "j"
      ],
      [
        "Ġl",
        "ack"
      ],
      [
        "c",
        "her"
      ],
      [
        "ĠA",
        "ct"
      ],
      [
        "av",
        "es"
      ],
      [
        "Ġres",
        "pect"
      ],
      [
        "Ġne",
        "g"
      ],
      [
        "our",
        "n"
      ],
      [
        "ĠH",
        "en"
      ],
      [
        "Ġs",
        "outhern"
      ],
      [
        "Ġn",
        "ar"
      ],
      [
        "ra",
        "b"
      ],
      [
        "Ġbus",
        "iness"
      ],
      [
        "ic",
        "a"
      ],
      [
        "i",
        "us"
      ],
      [
        "ĠE",
        "v"
      ],
      [
        "Ġpl",
        "aced"
      ],
      [
        "Ġsc",
        "ored"
      ],
      [
        "Ġallow",
        "ed"
      ],
      [
        "Ġd",
        "ou"
      ],
      [
        "Ġrel",
        "ig"
      ],
      [
        "Ġc",
        "ase"
      ],
      [
        "al",
        "t"
      ],
      [
        "ur",
        "g"
      ],
      [
        "Ġrepres",
        "ent"
      ],
      [
        "i",
        "ation"
      ],
      [
        "m",
        "en"
      ],
      [
        "c",
        "il"
      ],
      [
        "Ġvict",
        "ory"
      ],
      [
        "Ġ",
        "ill"
      ],
      [
        "ul",
        "f"
      ],
      [
        "Ġse",
        "le"
      ],
      [
        "Ġ5",
        "00"
      ],
      [
        "ĠDav",
        "id"
      ],
      [
        "f",
        "or"
      ],
      [
        "Ġl",
        "ength"
      ],
      [
        "ud",
        "e"
      ],
      [
        "Ġs",
        "our"
      ],
      [
        "Ġin",
        "form"
      ],
      [
        "er",
        "ous"
      ],
      [
        "Ġf",
        "und"
      ],
      [
        "Ġcom",
        "mer"
      ],
      [
        "Ġex",
        "ist"
      ],
      [
        "ĠRober",
        "t"
      ],
      [
        "Ġw",
        "anted"
      ],
      [
        "ang",
        "u"
      ],
      [
        "one",
        "y"
      ],
      [
        "or",
        "ing"
      ],
      [
        "ĠT",
        "wo"
      ],
      [
        "ĠL",
        "a"
      ],
      [
        "Ġins",
        "p"
      ],
      [
        "i",
        "pp"
      ],
      [
        "Ġh",
        "on"
      ],
      [
        "Ġse",
        "x"
      ],
      [
        "Ġparticular",
        "ly"
      ],
      [
        "Ġwork",
        "s"
      ],
      [
        "Ġpoin",
        "ts"
      ],
      [
        "Ġn",
        "omin"
      ],
      [
        "ĠP",
        "al"
      ],
      [
        "Ġpro",
        "b"
      ],
      [
        "Ġes",
        "c"
      ],
      [
        "ĠF",
        "ollow"
      ],
      [
        "Ġind",
        "ust"
      ],
      [
        "ap",
        "s"
      ],
      [
        "wo",
        "od"
      ],
      [
        "Ġinv",
        "est"
      ],
      [
        "ĠV",
        "ir"
      ],
      [
        "Ġfin",
        "ished"
      ],
      [
        "Ġqu",
        "ick"
      ],
      [
        "Ġdesign",
        "ed"
      ],
      [
        "Ġappear",
        "ance"
      ],
      [
        "ar",
        "m"
      ],
      [
        "ĠI",
        "re"
      ],
      [
        "Ġv",
        "ot"
      ],
      [
        "Ġwork",
        "ing"
      ],
      [
        "Ġfour",
        "th"
      ],
      [
        "Ġbro",
        "ther"
      ],
      [
        "i",
        "que"
      ],
      [
        "ill",
        "s"
      ],
      [
        "art",
        "ment"
      ],
      [
        "in",
        "o"
      ],
      [
        "at",
        "ural"
      ],
      [
        "ĠH",
        "ouse"
      ],
      [
        "ell",
        "ow"
      ],
      [
        "Ġsub",
        "sequ"
      ],
      [
        "Ġreg",
        "ular"
      ],
      [
        "at",
        "ory"
      ],
      [
        "ĠM",
        "o"
      ],
      [
        "pt",
        "ion"
      ],
      [
        "l",
        "iam"
      ],
      [
        "Ġto",
        "wards"
      ],
      [
        "ĠIre",
        "land"
      ],
      [
        "Ã",
        "Ń"
      ],
      [
        "he",
        "ad"
      ],
      [
        "ĠS",
        "chool"
      ],
      [
        "Ġe",
        "astern"
      ],
      [
        "av",
        "al"
      ],
      [
        "Ġ201",
        "5"
      ],
      [
        "Ġfeat",
        "ured"
      ],
      [
        "Ġcur",
        "rent"
      ],
      [
        "ĠFollow",
        "ing"
      ],
      [
        "B",
        "C"
      ],
      [
        "g",
        "o"
      ],
      [
        "Ġe",
        "y"
      ],
      [
        "Ġmater",
        "ial"
      ],
      [
        "ĠD",
        "ay"
      ],
      [
        "Ġ18",
        "7"
      ],
      [
        "ĠQ",
        "ue"
      ],
      [
        "i",
        "ol"
      ],
      [
        "Ġsay",
        "ing"
      ],
      [
        "Ġaver",
        "age"
      ],
      [
        "ra",
        "in"
      ],
      [
        "ĠO",
        "ther"
      ],
      [
        "ĠComp",
        "any"
      ],
      [
        "ĠP",
        "aul"
      ],
      [
        "ĠWh",
        "ite"
      ],
      [
        "Ġdam",
        "age"
      ],
      [
        "ĠKing",
        "dom"
      ],
      [
        "ĠPres",
        "ident"
      ],
      [
        "v",
        "ing"
      ],
      [
        "Ġposs",
        "ible"
      ],
      [
        "ĠÂ",
        "°"
      ],
      [
        "c",
        "om"
      ],
      [
        "p",
        "s"
      ],
      [
        "Ġm",
        "ust"
      ],
      [
        "ĠG",
        "od"
      ],
      [
        "Ġlar",
        "gest"
      ],
      [
        "Ġph",
        "ys"
      ],
      [
        "l",
        "ic"
      ],
      [
        "in",
        "al"
      ],
      [
        "st",
        "it"
      ],
      [
        "id",
        "a"
      ],
      [
        "ĠE",
        "m"
      ],
      [
        "Ġex",
        "c"
      ],
      [
        "Ġso",
        "on"
      ],
      [
        "er",
        "ved"
      ],
      [
        "Ġb",
        "i"
      ],
      [
        "and",
        "ing"
      ],
      [
        "op",
        "h"
      ],
      [
        "Ġmov",
        "e"
      ],
      [
        "Ġinvol",
        "ved"
      ],
      [
        "ĠN",
        "avy"
      ],
      [
        "Ġ200",
        "0"
      ],
      [
        "ff",
        "ic"
      ],
      [
        "Ġpos",
        "itive"
      ],
      [
        "ĠPl",
        "ay"
      ],
      [
        "orp",
        "or"
      ],
      [
        "ĠDes",
        "pite"
      ],
      [
        "ĠRep",
        "ublic"
      ],
      [
        "s",
        "el"
      ],
      [
        "Ġopen",
        "ing"
      ],
      [
        "Ġdra",
        "w"
      ],
      [
        "ĠP",
        "art"
      ],
      [
        "ĠG",
        "r"
      ],
      [
        "Ġfl",
        "ight"
      ],
      [
        "Ġreg",
        "ard"
      ],
      [
        "liam",
        "ent"
      ],
      [
        "Ġf",
        "ree"
      ],
      [
        "Ġus",
        "ually"
      ],
      [
        "Ġsc",
        "ene"
      ],
      [
        "Ġsp",
        "ace"
      ],
      [
        "Ġdire",
        "cted"
      ],
      [
        "ĠFran",
        "ce"
      ],
      [
        "ĠMich",
        "ael"
      ],
      [
        "m",
        "ing"
      ],
      [
        "ĠS",
        "qu"
      ],
      [
        "Ġst",
        "ars"
      ],
      [
        "Ġr",
        "iver"
      ],
      [
        "Ġeng",
        "ine"
      ],
      [
        "Ġre",
        "ve"
      ],
      [
        "ĠM",
        "ary"
      ],
      [
        "Ġdirect",
        "or"
      ],
      [
        "at",
        "a"
      ],
      [
        "ĠM",
        "ac"
      ],
      [
        "Ġtrans",
        "fer"
      ],
      [
        "Ġme",
        "as"
      ],
      [
        "c",
        "ial"
      ],
      [
        "u",
        "el"
      ],
      [
        "t",
        "t"
      ],
      [
        "Ġa",
        "chie"
      ],
      [
        "ĠF",
        "rom"
      ],
      [
        "Ġp",
        "ract"
      ],
      [
        "st",
        "on"
      ],
      [
        "Ġele",
        "ments"
      ],
      [
        "m",
        "ar"
      ],
      [
        "Ġpro",
        "per"
      ],
      [
        "Ġout",
        "side"
      ],
      [
        "Ġmain",
        "t"
      ],
      [
        "ĠCanad",
        "a"
      ],
      [
        "Ġh",
        "ours"
      ],
      [
        "am",
        "a"
      ],
      [
        "ĠM",
        "ost"
      ],
      [
        "Ġcont",
        "ract"
      ],
      [
        "ĠCol",
        "le"
      ],
      [
        "o",
        "res"
      ],
      [
        "u",
        "k"
      ],
      [
        "ĠM",
        "y"
      ],
      [
        "ĠFl",
        "or"
      ],
      [
        "ĠEurope",
        "an"
      ],
      [
        "Ġfoot",
        "ball"
      ],
      [
        "Ġter",
        "rit"
      ],
      [
        "Ġl",
        "angu"
      ],
      [
        "Ġincre",
        "ased"
      ],
      [
        "ĠB",
        "est"
      ],
      [
        "ag",
        "o"
      ],
      [
        "Ġk",
        "ing"
      ],
      [
        "Ġev",
        "idence"
      ],
      [
        "ĠMe",
        "xic"
      ],
      [
        "ĠS",
        "ch"
      ],
      [
        "ĠQ",
        "u"
      ],
      [
        "Ġl",
        "y"
      ],
      [
        "Ġme",
        "an"
      ],
      [
        "Ġgo",
        "al"
      ],
      [
        "Ġfem",
        "ale"
      ],
      [
        "v",
        "al"
      ],
      [
        "Ġ200",
        "1"
      ],
      [
        "Ġacc",
        "ount"
      ],
      [
        "Ġhigh",
        "way"
      ],
      [
        "Ġav",
        "ail"
      ],
      [
        "Ġpartic",
        "ip"
      ],
      [
        "et",
        "work"
      ],
      [
        "Ġwh",
        "om"
      ],
      [
        "Ġv",
        "e"
      ],
      [
        "Ġrepl",
        "aced"
      ],
      [
        "Ġh",
        "op"
      ],
      [
        "if",
        "t"
      ],
      [
        "Ġdis",
        "p"
      ],
      [
        "Ġ8",
        "0"
      ],
      [
        "it",
        "z"
      ],
      [
        "ĠM",
        "id"
      ],
      [
        "ĠH",
        "am"
      ],
      [
        "ish",
        "ing"
      ],
      [
        "Ġa",
        "ut"
      ],
      [
        "ĠS",
        "y"
      ],
      [
        "Ġjoin",
        "ed"
      ],
      [
        "Ġl",
        "ove"
      ],
      [
        "Ġst",
        "age"
      ],
      [
        "ber",
        "t"
      ],
      [
        "fer",
        "ence"
      ],
      [
        "Ġgr",
        "ad"
      ],
      [
        "Ġto",
        "ld"
      ],
      [
        "ig",
        "an"
      ],
      [
        "Ġex",
        "ec"
      ],
      [
        "le",
        "ment"
      ],
      [
        "ĠH",
        "all"
      ],
      [
        "pp",
        "er"
      ],
      [
        "Ġ200",
        "2"
      ],
      [
        "Ġcon",
        "du"
      ],
      [
        "ĠO",
        "l"
      ],
      [
        "Ġpr",
        "iv"
      ],
      [
        "Ġob",
        "ject"
      ],
      [
        "Ġsign",
        "ed"
      ],
      [
        "ĠThom",
        "as"
      ],
      [
        "us",
        "ion"
      ],
      [
        "ĠJ",
        "enn"
      ],
      [
        "Ġcent",
        "ral"
      ],
      [
        "Ġtro",
        "ops"
      ],
      [
        "a",
        "ire"
      ],
      [
        "w",
        "est"
      ],
      [
        "ed",
        "y"
      ],
      [
        "it",
        "te"
      ],
      [
        "Ġ3",
        "5"
      ],
      [
        "Ġearl",
        "ier"
      ],
      [
        "w",
        "er"
      ],
      [
        "Ġmet",
        "al"
      ],
      [
        "Ġrun",
        "s"
      ],
      [
        "Ġiss",
        "ue"
      ],
      [
        "it",
        "es"
      ],
      [
        "Ġc",
        "ru"
      ],
      [
        "Ġh",
        "ous"
      ],
      [
        "Ġst",
        "ay"
      ],
      [
        "ĠG",
        "ame"
      ],
      [
        "ak",
        "er"
      ],
      [
        "n",
        "ow"
      ],
      [
        "Ġt",
        "aking"
      ],
      [
        "Ġn",
        "uc"
      ],
      [
        "rib",
        "uted"
      ],
      [
        "Ġresp",
        "ons"
      ],
      [
        "Ġinit",
        "ially"
      ],
      [
        "Ġnort",
        "hern"
      ],
      [
        "v",
        "ille"
      ],
      [
        "ir",
        "th"
      ],
      [
        "if",
        "f"
      ],
      [
        "Ġprevious",
        "ly"
      ],
      [
        "g",
        "round"
      ],
      [
        "Ġfor",
        "t"
      ],
      [
        "Ġfor",
        "ced"
      ],
      [
        "ĠD",
        "yl"
      ],
      [
        "ĠN",
        "Y"
      ],
      [
        "ant",
        "ry"
      ],
      [
        "ĠV",
        "al"
      ],
      [
        "Ġcomm",
        "ission"
      ],
      [
        "Ġstud",
        "y"
      ],
      [
        "ĠDyl",
        "an"
      ],
      [
        "ad",
        "ron"
      ],
      [
        "ĠG",
        "rand"
      ],
      [
        "Ġem",
        "ploy"
      ],
      [
        "ĠVir",
        "gin"
      ],
      [
        "re",
        "y"
      ],
      [
        "Ġp",
        "ur"
      ],
      [
        "ĠT",
        "imes"
      ],
      [
        "Ġth",
        "reat"
      ],
      [
        "Ġst",
        "op"
      ],
      [
        "Ġab",
        "ove"
      ],
      [
        "ors",
        "es"
      ],
      [
        "Ġpra",
        "ised"
      ],
      [
        "al",
        "v"
      ],
      [
        "Ġfe",
        "el"
      ],
      [
        "ĠIntern",
        "ational"
      ],
      [
        "ĠS",
        "om"
      ],
      [
        "Ġsp",
        "ent"
      ],
      [
        "ann",
        "ed"
      ],
      [
        "it",
        "or"
      ],
      [
        "Ġsh",
        "ot"
      ],
      [
        "Ġen",
        "ough"
      ],
      [
        "Ġrem",
        "ov"
      ],
      [
        "Ġqu",
        "ar"
      ],
      [
        "b",
        "or"
      ],
      [
        "f",
        "all"
      ],
      [
        "Ġc",
        "lear"
      ],
      [
        "ĠT",
        "own"
      ],
      [
        "ut",
        "ive"
      ],
      [
        "u",
        "ation"
      ],
      [
        "Ġre",
        "ason"
      ],
      [
        "Ġn",
        "ine"
      ],
      [
        "Ġbe",
        "g"
      ],
      [
        "ĠF",
        "irst"
      ],
      [
        "Ġv",
        "ir"
      ],
      [
        "Ġr",
        "ace"
      ],
      [
        "Ġhig",
        "hest"
      ],
      [
        "he",
        "ast"
      ],
      [
        "Ġp",
        "ers"
      ],
      [
        "as",
        "ion"
      ],
      [
        "Ġh",
        "om"
      ],
      [
        "ĠB",
        "ra"
      ],
      [
        "ĠH",
        "a"
      ],
      [
        "ĠMus",
        "ic"
      ],
      [
        "Ġb",
        "ill"
      ],
      [
        "Ġg",
        "od"
      ],
      [
        "ĠG",
        "reat"
      ],
      [
        "ate",
        "g"
      ],
      [
        "Ġsc",
        "en"
      ],
      [
        "Ġwrit",
        "er"
      ],
      [
        "Ġd",
        "en"
      ],
      [
        "Ġh",
        "ard"
      ],
      [
        "ok",
        "e"
      ],
      [
        "Ġspec",
        "ific"
      ],
      [
        "Ġacc",
        "ording"
      ],
      [
        "Ġclaim",
        "ed"
      ],
      [
        "Ġsomet",
        "imes"
      ],
      [
        "Ġs",
        "il"
      ],
      [
        "Ġh",
        "urricane"
      ],
      [
        "ĠB",
        "er"
      ],
      [
        "Ġw",
        "estern"
      ],
      [
        "ot",
        "a"
      ],
      [
        "ĠH",
        "ol"
      ],
      [
        "con",
        "om"
      ],
      [
        "Ġd",
        "ro"
      ],
      [
        "ib",
        "ility"
      ],
      [
        "Ġinter",
        "view"
      ],
      [
        "Ġrequ",
        "ired"
      ],
      [
        "Ġmanag",
        "er"
      ],
      [
        "o",
        "e"
      ],
      [
        "Ġm",
        "ight"
      ],
      [
        "ĠN",
        "or"
      ],
      [
        "e",
        "um"
      ],
      [
        "m",
        "a"
      ],
      [
        "Ġth",
        "ink"
      ],
      [
        "ĠUn",
        "ion"
      ],
      [
        "Ġacc",
        "om"
      ],
      [
        "ĠFran",
        "k"
      ],
      [
        "Ġbre",
        "ak"
      ],
      [
        "Ġm",
        "ph"
      ],
      [
        "r",
        "ated"
      ],
      [
        "Ġp",
        "ot"
      ],
      [
        "ĠA",
        "g"
      ],
      [
        "et",
        "ic"
      ],
      [
        "ul",
        "a"
      ],
      [
        "ĠL",
        "ove"
      ],
      [
        "Ġpo",
        "or"
      ],
      [
        "Ġt",
        "ru"
      ],
      [
        "and",
        "er"
      ],
      [
        "if",
        "orn"
      ],
      [
        "Ġ3",
        "6"
      ],
      [
        "Ġ199",
        "0"
      ],
      [
        "Ġide",
        "a"
      ],
      [
        "ĠC",
        "up"
      ],
      [
        "ĠHen",
        "ry"
      ],
      [
        "e",
        "al"
      ],
      [
        "Ġcent",
        "er"
      ],
      [
        "Ġpass",
        "ed"
      ],
      [
        "Ġdeb",
        "ut"
      ],
      [
        "ĠI",
        "m"
      ],
      [
        "ĠInd",
        "ia"
      ],
      [
        "ĠÂ",
        "£"
      ],
      [
        "at",
        "in"
      ],
      [
        "Ġp",
        "ay"
      ],
      [
        "Ġv",
        "iol"
      ],
      [
        "ĠCal",
        "iforn"
      ],
      [
        "Ġintrodu",
        "ced"
      ],
      [
        "Ġavail",
        "able"
      ],
      [
        "al",
        "ed"
      ],
      [
        "Ġh",
        "orse"
      ],
      [
        "os",
        "ing"
      ],
      [
        "Ġits",
        "elf"
      ],
      [
        "Ġab",
        "s"
      ],
      [
        "Ġsc",
        "reen"
      ],
      [
        "h",
        "ib"
      ],
      [
        "Ġdes",
        "pite"
      ],
      [
        "Ġ6",
        "0"
      ],
      [
        "Ġp",
        "ast"
      ],
      [
        "on",
        "st"
      ],
      [
        "Ġd",
        "on"
      ],
      [
        "Ġra",
        "il"
      ],
      [
        "Ġ198",
        "0"
      ],
      [
        "ĠFlor",
        "ida"
      ],
      [
        "Ã",
        "³"
      ],
      [
        "Ġch",
        "ange"
      ],
      [
        "Ġs",
        "ize"
      ],
      [
        "ĠH",
        "ot"
      ],
      [
        "Ġac",
        "qu"
      ],
      [
        "g",
        "l"
      ],
      [
        "o",
        "id"
      ],
      [
        "ĠC",
        "ong"
      ],
      [
        "Ġ18",
        "4"
      ],
      [
        "ĠTh",
        "at"
      ],
      [
        "Ġm",
        "i"
      ],
      [
        "Ġex",
        "cept"
      ],
      [
[...]
